. 4046090
<CONS-0> 4021873
<NP> 3032014
<sep> 2770182
<VP> 2009082
, 1784635
the 1575876
<S> 1331286
to 1016903
a 885367
i 806117
you 753594
of 745493
and 736898
<PP> 713546
? 593237
's 580820
it 569870
in 558474
that 524535
is 487790
<TOP> 478909
he 419069
n't 373445
... 346360
be 342317
for 342079
not 339107
was 333953
! 321168
have 304524
on 296473
we 289866
this 285035
with 256580
are 238806
they 237559
do 229987
`` 199357
my 192381
an 190569
at 187545
his 187479
there 186866
your 185449
as 180791
she 178718
me 177573
but 173570
had 168158
no 165125
're 162387
will 156791
from 154052
all 147103
by 145364
so 140888
if 135683
or 134719
can 134442
her 134210
'' 133043
'm 133004
did 132517
what 131270
one 129075
out 128728
were 124268
would 123916
like 119168
been 114611
has 113898
re@@ 112942
when 110650
up 110061
him 108956
about 107723
na 105581
just 105093
could 103662
'll 100599
who 100319
' 99825
get 98109
-@@ 93939
got 93509
going 88669
gon 88054
s 85841
- 84119
in@@ 83192
've 82801
d@@ 81544
t@@ 80081
their 79141
s@@ 78825
here 76982
now 76314
a@@ 74985
which 74219
p@@ 74105
some 73917
into 73439
our 71528
does 70979
t 69759
go 69122
e@@ 69106
them 68741
us 68172
ing 67791
how 67445
i@@ 66910
es 66482
: 66329
k@@ 65723
'@@ 65512
then 65388
more 65302
g@@ 65020
un@@ 64681
o@@ 63742
ted 63043
any 61947
must 61353
should 60802
man 60748
only 60652
let 60613
these 60401
ed 60113
time 59256
know 59219
l@@ 58589
want 58510
di@@ 57799
e 56837
its 56802
said 56465
well 55207
y@@ 54763
even 54678
f@@ 54587
never 54391
think 53911
down 53889
m@@ 53847
u@@ 53483
’ 51778
back 50683
en@@ 50514
over 50329
right 50324
'd 50306
take 50181
because 49943
see 49820
c@@ 49594
o 49410
b@@ 49337
those 49071
ts 48620
make 48360
al@@ 48291
ro@@ 47661
y 47648
v@@ 47381
ri@@ 46819
ti@@ 46590
an@@ 46372
de@@ 46313
where 46278
come 46251
ting 46050
way 46008
may 45752
el@@ 45097
ar@@ 44700
off 44537
al 44510
after 44361
ra@@ 44353
m 44208
able 44044
people 43958
co@@ 43855
ate 43505
; 43159
before 42630
er 42392
why 42248
other 41562
n@@ 41222
ated 41151
ca 41026
two 40842
ers 40795
st@@ 40720
li@@ 40424
than 40201
red 39939
also 39933
sp@@ 39765
con@@ 39456
ma@@ 39272
shall 39057
tion 38953
very 38666
might 38266
say 38196
wo 38193
le@@ 38169
se 37907
r@@ 37175
maybe 37166
made 37099
little 37045
la@@ 36613
something 36375
th@@ 36154
d 36053
still 36045
) 35992
too 35934
de 35923
nothing 35684
k 35653
( 35588
look 35445
night 35437
h@@ 35322
mo@@ 35319
p 35231
ly 34875
si@@ 34828
pro@@ 34764
w@@ 34722
ca@@ 34439
be@@ 34367
such 33891
through 33860
ha@@ 33651
really 33584
n 33471
much 33358
it@@ 33356
led 33291
mi@@ 33175
l 33148
se@@ 32622
ds 32594
good 32577
g 32277
someone 32220
lo@@ 32062
er@@ 31569
z@@ 31548
po@@ 31512
ever 31399
sh@@ 31320
being 31257
ded 31200
away 31129
every 31074
st 30400
-- 30373
le 30354
ch@@ 30035
no@@ 29986
ling 29586
ac@@ 29253
anything 29203
am 29189
j@@ 28941
at@@ 28917
tell 28886
need 28809
around 28749
day 28490
sa@@ 28329
on@@ 28307
thought 28204
put 28105
c 28083
or@@ 28045
work 28024
tions 28021
ta@@ 27944
to@@ 27722
oh 27181
thing 27176
ex@@ 27155
life 27039
king 27020
pre@@ 27018
without 26919
another 26855
vi@@ 26703
again 26516
su@@ 26492
ding 26281
until 26252
sed 25954
ous 25801
ta 25762
always 25707
pa@@ 25682
ab@@ 25552
new 25538
bo@@ 25378
first 25263
mar@@ 25094
three 25089
used 25046
sure 24982
long 24830
ter 24738
for@@ 24680
ation 24640
use 24506
last 24443
wan 24416
bu@@ 24277
came 24146
father 24007
give 23946
find 23903
u 23751
own 23747
/@@ 23743
ses 23650
ent 23606
ho@@ 23577
im@@ 23550
son 23507
do@@ 23444
keep 23419
as@@ 23371
ance 23321
ru@@ 23305
na@@ 23280
per@@ 23266
men 23194
sorry 23154
sing 22892
while 22892
nobody 22861
eyes 22777
tive 22772
wa@@ 22765
ating 22723
place 22709
les 22691
il@@ 22686
me@@ 22673
ks 22672
years 22583
der 22567
under 22563
em@@ 22499
.@@ 22489
ally 22470
ine 22413
so@@ 22348
each 22319
things 22269
r 22244
anyone 22223
pe@@ 22183
b 22101
told 22046
th 21945
once 21903
kill 21829
end 21681
en 21594
many 21526
mother 21446
okay 21397
everyone 21394
ad@@ 21298
pi@@ 21293
saw 21238
sh 21218
ne@@ 21047
ch 20935
great 20743
ur@@ 20707
seen 20642
sc@@ 20318
car@@ 20293
old 20275
als 20263
ag@@ 20243
took 20177
tra@@ 20125
sha@@ 20119
guy 20109
pu@@ 20088
less 20083
enough 20076
ment 20008
du@@ 19997
ant 19875
fi@@ 19791
ga@@ 19771
love 19635
since 19628
everything 19587
da@@ 19544
” 19532
1 19459
om@@ 19448
found 19320
am@@ 19264
ty 19206
kind 19160
killed 19088
cu@@ 19050
ec@@ 19019
looking 18970
left 18966
somebody 18949
ge@@ 18939
head 18764
dis@@ 18599
getting 18591
heard 18346
ship 18314
ver@@ 18290
stop 18219
went 18207
ary 18172
2@@ 18149
2 18146
set 18140
bi@@ 18139
ic@@ 18133
most 18119
com@@ 18108
sts 18014
days 17978
against 17878
x@@ 17792
talk 17740
better 17673
done 17621
ked 17612
yet 17597
dec@@ 17575
go@@ 17527
face 17523
shed 17476
seems 17462
else 17413
ity 17399
help 17396
friend 17374
die 17370
perhaps 17367
ans 17363
ors 17279
dad 17257
3@@ 17216
hi@@ 17211
wait 17202
knew 17194
mon@@ 17113
he@@ 17096
gi@@ 17069
gra@@ 17043
gu@@ 17034
few 17008
tri@@ 17001
ke@@ 16997
man@@ 16956
op@@ 16956
w 16921
wi@@ 16887
ves 16880
ons 16871
mean 16831
though 16815
ss 16814
lot 16797
taken 16792
coming 16747
ba@@ 16713
five 16663
pri@@ 16654
doing 16646
yeah 16641
5 16640
dead 16631
ve 16540
ke 16538
fa@@ 16497
ai 16438
woman 16399
bed 16391
cha@@ 16383
feel 16336
ms 16317
ir@@ 16213
min@@ 16182
hear 16145
3 16128
remember 16112
home 16108
leave 16082
taking 16077
mu@@ 16066
name 16053
car 16048
ali@@ 15977
ter@@ 15971
god 15884
ol@@ 15881
ten 15877
house 15823
har@@ 15746
ings 15728
ge 15719
fire 15711
water 15610
fucking 15595
big 15587
inter@@ 15583
says 15547
re 15536
tu@@ 15524
ations 15523
sub@@ 15433
tic 15334
d-@@ 15326
start 15284
ties 15278
bar@@ 15257
res 15217
already 15209
call 15128
x 15108
under@@ 15100
mom 15075
ss@@ 15058
called 15054
sti@@ 15016
ni@@ 15008
children 14985
ten@@ 14963
4@@ 14962
bad 14959
almost 14885
fe@@ 14863
mor@@ 14863
par@@ 14857
try 14854
however 14850
ph@@ 14848
the@@ 14823
ssed 14791
looked 14775
between 14773
sion 14771
sted 14742
himself 14731
possible 14700
money 14552
both 14518
whole 14504
ou@@ 14503
age 14462
ce@@ 14408
mr. 14352
te@@ 14343
death 14324
having 14319
next 14306
pped 14278
friends 14255
sleep 14243
probably 14239
ins 14220
making 14219
supposed 14207
eat 14199
vo@@ 14163
cor@@ 14106
means 14049
ve@@ 14026
f 14016
four 14015
ing@@ 14003
minutes 13968
um 13953
ce 13946
open 13918
today 13867
te 13838
same 13828
please 13764
everybody 13758
gr@@ 13738
seemed 13734
1@@ 13705
afraid 13677
girl 13663
h 13629
ls 13626
looks 13621
tomorrow 13592
ence 13558
dra@@ 13496
5@@ 13495
behind 13420
ful 13416
lu@@ 13374
ju@@ 13334
wife 13312
started 13305
light 13280
therefore 13274
soon 13264
talking 13264
ci@@ 13248
land 13240
et 13214
hand 13193
information 13185
8@@ 13177
4 13117
ving 13092
wanted 13089
hu@@ 13081
room 13054
over@@ 13042
we@@ 13006
ob@@ 12991
door 12989
ent@@ 12965
within 12963
7@@ 12942
enti@@ 12917
ments 12903
family 12879
pl@@ 12837
guys 12809
10 12756
hope 12735
war@@ 12714
v 12685
case 12663
ates 12653
ble 12619
is@@ 12598
trying 12565
ged 12558
ps 12523
sk@@ 12519
zed 12469
small 12456
sta@@ 12446
world 12412
tonight 12365
yes 12361
side 12324
show 12318
bur@@ 12292
women 12281
live 12214
morning 12204
believe 12199
fear 12179
el 12176
mind 12176
gh@@ 12156
t-@@ 12153
change 12140
hard 12127
ia 12086
shi@@ 12065
working 12059
ved 12055
police 12054
6@@ 12051
hands 12045
ul@@ 12041
began 12037
makes 12032
different 12014
gets 11985
real 11979
6 11942
der@@ 11927
care 11920
med 11917
ently 11907
la 11890
order 11890
actually 11873
ched 11869
watch 11867
je@@ 11842
city 11833
air 11827
del@@ 11769
9@@ 11721
times 11720
ber@@ 11702
sometimes 11692
using 11692
tr@@ 11677
out@@ 11672
together 11658
dy 11644
qu@@ 11642
gre@@ 11630
sen@@ 11590
ders 11550
tor@@ 11548
da 11483
ev@@ 11481
million 11471
black 11456
“ 11450
ck 11432
easy 11425
blood 11403
far 11403
gave 11400
hours 11378
necessary 11359
died 11341
gone 11341
young 11324
/ 11313
8 11270
given 11265
part 11257
knows 11252
high 11245
town 11244
can@@ 11236
ea@@ 11232
ker 11200
kids 11169
por@@ 11129
saying 11128
mine 11119
boy 11118
lost 11076
point 11065
alone 11054
during 11028
bring 10980
wor@@ 10979
ven@@ 10953
col@@ 10942
ys 10930
ze 10924
cr@@ 10911
fla@@ 10909
run 10894
felt 10856
0@@ 10846
guess 10831
upon 10821
z 10821
tional 10819
thinking 10804
number 10801
bri@@ 10779
mer@@ 10752
line 10742
turned 10737
white 10708
ago 10707
child 10701
ran@@ 10697
pe 10693
body 10692
hey 10692
lan@@ 10677
longer 10660
gen@@ 10655
across 10654
lic@@ 10617
ori@@ 10615
e-@@ 10600
anybody 10562
ren@@ 10529
bit 10455
ki@@ 10455
stu@@ 10455
hold 10450
fo@@ 10425
stay 10422
year 10409
yourself 10404
ents 10395
br@@ 10377
mp@@ 10376
es@@ 10357
lea@@ 10348
trans@@ 10347
play 10340
inside 10335
food 10334
system 10324
tly 10322
fied 10313
pretty 10313
ic 10304
waiting 10281
ed@@ 10260
ut@@ 10257
fact 10250
shit 10248
ka@@ 10226
ness 10202
dly 10185
ming 10181
feet 10180
crazy 10163
best 10144
il 10136
job 10098
her@@ 10095
six 10046
men@@ 10032
ang@@ 9993
sting 9973
ear@@ 9964
ass 9957
mr 9951
lin@@ 9946
week 9942
fac@@ 9902
ice 9898
fu@@ 9880
sla@@ 9854
hurt 9826
ste@@ 9808
id 9787
become 9775
baby 9745
quickly 9744
pt 9743
7 9737
des 9726
nice 9722
comes 9694
speak 9669
listen 9668
quite 9650
asked 9642
fin@@ 9636
several 9632
‘ 9609
sit 9605
che@@ 9567
power 9560
move 9547
jo@@ 9524
fine 9523
school 9514
ma 9504
sses 9489
dark 9478
seem 9460
nor 9412
str@@ 9386
ff@@ 9368
full 9362
happy 9329
suddenly 9314
dri@@ 9303
war 9265
idea 9252
forget 9250
months 9247
drink 9240
ster 9228
miles 9175
cla@@ 9173
needs 9173
pping 9169
$ 9168
person 9165
myself 9159
rec@@ 9151
strange 9148
along 9138
business 9127
ry 9120
mat@@ 9109
pay 9103
human 9086
gar@@ 9080
wants 9074
couple 9067
organi@@ 9065
kid 9051
cut 9047
% 9039
gun 9026
miss 9026
clo@@ 9024
ying 9024
close 9006
up@@ 9003
ser@@ 8998
9 8996
phone 8994
sho@@ 8989
star@@ 8947
tation 8943
ja@@ 8925
often 8924
bra@@ 8923
control 8905
wrong 8900
pp@@ 8898
sur@@ 8894
form 8888
200@@ 8887
data 8870
tal@@ 8858
ches 8852
ask 8831
sal@@ 8831
ari@@ 8830
ly@@ 8830
sli@@ 8830
chance 8817
either 8808
thank 8778
moment 8773
second 8756
further 8728
table 8724
bit@@ 8722
tor 8719
20@@ 8713
half 8647
happen 8631
ws 8627
ite 8623
turn 8615
killing 8608
low 8607
check 8597
later 8571
ned 8534
ely 8519
certain 8517
lar 8507
course 8476
living 8475
ban@@ 8466
whether 8458
ters 8456
den@@ 8442
pen@@ 8440
shing 8437
stupid 8433
ssing 8422
inf@@ 8412
fully 8409
till 8406
shot 8400
finally 8389
known 8386
sent 8373
va@@ 8371
bl@@ 8369
weeks 8369
goes 8368
unless 8359
hair 8355
uh 8354
dr@@ 8331
pas@@ 8325
thanks 8308
ously 8298
tion@@ 8294
ward 8294
act 8291
ger 8289
following 8272
outside 8272
lose 8251
mes 8222
heart 8212
free 8170
late 8163
ies 8159
lar@@ 8146
20 8141
off@@ 8136
brother 8118
happened 8113
ats 8086
stri@@ 8080
dinner 8070
ability 8057
stuff 8054
é@@ 8044
public 8042
state 8039
others 8021
far@@ 8016
uni@@ 7994
'cause 7987
true 7982
ined 7977
meet 7975
han@@ 7962
ler 7952
risk 7945
tre@@ 7937
wil@@ 7934
ure 7928
ard 7926
cre@@ 7911
ns 7872
uc@@ 7868
front 7865
stra@@ 7851
lat@@ 7834
sto@@ 7804
member 7791
rather 7781
per 7776
eye 7765
sation 7747
ny 7744
needed 7733
large 7723
clear 7719
fight 7709
bor@@ 7683
running 7673
test 7666
cat@@ 7662
hundred 7649
commission 7617
cli@@ 7616
ered 7606
cur@@ 7602
end@@ 7596
bro@@ 7590
tar@@ 7580
fuck 7577
ko@@ 7577
hit 7574
ar 7558
bitch 7555
company 7553
anymore 7550
beautiful 7548
lives 7537
sm@@ 7532
except 7527
gri@@ 7524
— 7513
app@@ 7511
fil@@ 7510
ily 7509
* 7490
fast 7471
mag@@ 7465
law 7464
coun@@ 7463
cri@@ 7459
hour 7447
states 7444
likely 7442
rea@@ 7435
ement 7434
ical 7434
weird 7428
zz@@ 7428
ok 7420
read 7411
lord 7403
tried 7401
least 7390
cold 7368
shut 7365
past 7359
ground 7356
mil@@ 7355
val@@ 7346
yed 7346
ining 7345
ssion 7341
evening 7340
fer@@ 7333
matter 7325
gg@@ 7315
win@@ 7307
inc@@ 7305
return 7301
ver 7290
cap@@ 7279
sel@@ 7277
bal@@ 7267
ones 7264
char@@ 7245
lady 7243
ching 7221
hol@@ 7219
security 7217
girls 7212
area 7201
daddy 7191
watching 7185
held 7183
voice 7178
dream 7176
fell 7176
leaving 7172
understand 7163
difficult 7147
save 7142
entire 7137
whose 7135
moving 7128
tur@@ 7124
damn 7120
ering 7111
cru@@ 7103
action 7102
according 7101
regi@@ 7086
road 7083
hom@@ 7073
telling 7071
brought 7066
ended 7058
resi@@ 7051
tered 7049
doctor 7047
—@@ 7042
support 7038
cal@@ 7028
et@@ 7026
unable 7023
'i 7020
au@@ 7017
send 7011
excuse 7009
among 6994
os 6992
ill 6986
gs 6985
level 6984
ne 6983
sive 6966
important 6960
feeling 6948
lation 6945
thousand 6938
dar@@ 6937
att@@ 6935
playing 6907
ran 6904
ssi@@ 6899
pain 6898
– 6896
ble@@ 6876
words 6874
present 6846
although 6845
ements 6842
bel@@ 6832
yours 6832
word 6825
cra@@ 6824
dro@@ 6823
service 6822
provide 6820
wish 6817
hal@@ 6813
id@@ 6811
ft 6808
y-@@ 6806
fy 6797
50 6796
.. 6795
problem 6784
kept 6764
attack 6748
ck@@ 6741
ory 6739
daughter 6734
est@@ 6732
pur@@ 6730
ency 6727
allow 6720
nearly 6691
cont@@ 6659
scared 6656
mouth 6655
caught 6654
cho@@ 6652
funny 6651
gener@@ 6649
pla@@ 6649
country 6648
special 6648
single 6645
stopped 6640
ator 6632
fre@@ 6629
ning 6620
sky 6612
based 6611
market 6606
takes 6595
parents 6588
secret 6587
our@@ 6578
kes 6576
moved 6563
above 6553
usually 6550
ption 6536
plan 6535
hell 6530
fall 6529
ther@@ 6519
wh@@ 6519
whatever 6507
measures 6506
spo@@ 6503
appropriate 6500
ner@@ 6500
sir 6497
married 6481
ging 6472
she@@ 6469
pul@@ 6463
ships 6456
reason 6447
promise 6444
sor@@ 6434
row 6431
national 6428
husband 6424
ges 6421
ster@@ 6416
don 6413
seeing 6406
none 6387
earth 6376
wed 6375
arms 6365
fore@@ 6360
energy 6358
boat 6356
mad 6354
ens 6349
thus 6341
sun@@ 6339
ring 6337
hy@@ 6328
eu 6326
back@@ 6319
skin 6310
dd@@ 6307
game 6294
required 6294
fun 6289
due 6278
toward 6276
'said 6275
worried 6273
,000 6268
trouble 6258
tan@@ 6245
ct 6235
rest 6231
key 6213
sound 6211
ready 6210
worry 6201
mb@@ 6199
san@@ 6190
ton 6190
dollars 6175
stood 6168
non-@@ 6153
indi@@ 6140
els 6138
buy 6131
themselves 6126
met 6120
army 6113
treatment 6110
mal@@ 6109
date 6105
ace 6099
comp@@ 6082
len@@ 6079
alive 6064
af@@ 6061
paid 6048
ils 6033
sco@@ 6029
sch@@ 6014
pat@@ 6012
murder 6010
ll 6008
particular 6006
ped 5996
bre@@ 5984
explo@@ 5982
cro@@ 5978
break 5972
early 5972
slowly 5971
tro@@ 5954
| 5952
giving 5949
rac@@ 5945
wel@@ 5945
cover 5940
stand 5940
lying 5924
ants 5918
air@@ 5915
book 5915
wall 5914
hon@@ 5905
sions 5904
gl@@ 5902
trac@@ 5899
general 5896
ap@@ 5893
ty@@ 5888
tors 5869
allowed 5858
sort 5857
bastard 5844
dog 5839
ig@@ 5832
field 5831
fri@@ 5826
patients 5826
cal 5821
ka 5821
deal 5813
proce@@ 5804
changed 5803
walk 5797
ff 5795
thy 5794
european 5792
street 5792
gro@@ 5790
mp 5790
pan@@ 5790
cause 5789
12 5782
int 5777
near 5773
services 5773
costs 5772
don@@ 5768
wal@@ 5767
bru@@ 5766
super@@ 5758
tv 5758
view 5747
huge 5738
deli@@ 5737
wn 5732
sil@@ 5725
duc@@ 5724
nu@@ 5720
specific 5711
immediately 5698
force 5689
problems 5682
19@@ 5681
hot 5680
clothes 5678
interested 5676
list 5675
certainly 5674
cou@@ 5672
neither 5665
30 5661
weapon 5661
court 5660
completely 5644
tives 5644
tle 5640
eating 5638
zing 5636
val 5632
story 5629
space 5625
terrible 5620
comm@@ 5619
refu@@ 5616
top 5616
team 5611
covered 5608
den 5603
file 5600
win 5599
sister 5592
cy@@ 5591
position 5588
ture 5588
clearly 5585
cost 5580
group 5580
sick 5572
brain 5571
thinks 5560
shes 5547
anti@@ 5538
boys 5537
ner 5527
actions 5525
dr. 5521
consider@@ 5519
tical 5517
oun@@ 5511
strong 5511
sin@@ 5506
ger@@ 5500
hate 5499
lie 5496
worth 5493
carried 5492
itself 5484
herself 5483
decision 5481
watched 5479
works 5473
wing 5472
provided 5455
weapons 5454
gui@@ 5452
bs 5451
board 5449
sleeping 5448
swi@@ 5447
ingly 5441
mission 5431
10@@ 5426
shor@@ 5423
evidence 5421
gal@@ 5420
report 5420
huh 5417
apparently 5411
trust 5411
boo@@ 5397
00 5390
available 5378
iled 5375
question 5367
sea 5366
100 5355
broken 5350
dying 5349
towards 5349
hor@@ 5344
vel@@ 5343
deep 5340
tru@@ 5338
changes 5335
l-@@ 5332
prison 5323
captain 5316
ell 5313
doors 5306
eli@@ 5303
quiet 5299
short 5292
interest 5289
ley 5288
sex 5286
movie 5282
stone 5276
fighting 5272
spec@@ 5272
expected 5269
pra@@ 5267
stic 5264
seven 5251
animals 5250
result 5249
produc@@ 5244
building 5243
major 5243
infor@@ 5240
ways 5239
considered 5238
answer 5235
nor@@ 5232
surprise 5227
lead 5226
lies 5225
policy 5225
quick 5225
hel@@ 5215
xi@@ 5206
government 5202
ath 5201
impro@@ 5192
sou@@ 5188
worse 5186
missing 5181
mrs. 5178
begin 5170
fication 5169
á@@ 5163
sa 5158
american 5157
calm 5146
kin@@ 5145
forward 5141
surprised 5138
bil@@ 5132
fic@@ 5132
'you 5127
became 5126
ited 5125
continue 5120
coffee 5118
simply 5115
dance 5107
wind 5106
poor 5101
site 5096
lucky 5090
computer 5074
exactly 5071
mul@@ 5067
plane 5052
continued 5049
party 5048
rela@@ 5045
exce@@ 5040
kil@@ 5040
shoot 5039
rules 5037
ven 5025
below 5024
15 5023
sters 5021
acy 5019
price 5005
private 4999
tively 4991
sell 4989
closed 4985
calling 4983
ened 4981
passed 4971
fra@@ 4969
logical 4962
nic@@ 4959
picture 4948
yo@@ 4947
arm 4946
im 4943
squ@@ 4939
ences 4938
create 4934
imagine 4933
ends 4930
ber 4926
swe@@ 4924
sm 4921
mel@@ 4919
ssions 4919
tax 4916
sol@@ 4909
dre@@ 4906
impossible 4902
scri@@ 4892
sec@@ 4890
smile 4884
supp@@ 4884
training 4883
oni@@ 4877
inv@@ 4874
military 4874
pes 4874
systems 4874
pal@@ 4873
green 4872
s. 4871
,@@ 4865
emp@@ 4863
drive 4861
window 4861
reached 4858
wide 4857
third 4856
tt@@ 4851
ced 4847
ages 4845
hun@@ 4844
luck 4837
instead 4834
exa@@ 4831
sea@@ 4831
easily 4823
lit@@ 4819
bul@@ 4816
especially 4813
bla@@ 4810
struc@@ 4808
anyway 4806
normal 4805
sy 4805
fle@@ 4800
ili@@ 4798
ear 4797
doubt 4792
tin 4774
mate 4770
oper@@ 4770
obviously 4768
ani@@ 4765
products 4764
dy@@ 4763
local 4763
vers 4762
seconds 4757
eng@@ 4753
animal 4752
catch 4750
ately 4749
carry 4749
enemy 4743
companies 4741
nar@@ 4741
protect 4730
hea@@ 4727
fran@@ 4719
asking 4714
film 4714
dom@@ 4709
blue 4700
wan@@ 4700
medical 4698
filled 4697
meeting 4697
sign 4695
office 4690
walked 4686
int@@ 4681
wearing 4681
dic@@ 4679
indic@@ 4675
sig@@ 4671
period 4668
financial 4665
account 4664
beyond 4658
sitting 4653
bank 4652
increase 4649
ths 4649
# 4644
somewhere 4642
mama 4637
experience 4630
cul@@ 4628
brea@@ 4626
capable 4626
ess 4624
fish 4624
and@@ 4617
chan@@ 4617
history 4616
ahead 4605
pick 4604
bas@@ 4600
guns 4600
pr@@ 4599
hand@@ 4588
posed 4588
angry 4580
minute 4580
production 4577
bb@@ 4576
opened 4573
loc@@ 4570
cases 4568
safety 4568
tal 4562
1.@@ 4554
aid 4554
sense 4554
aware 4553
ya 4553
kno@@ 4551
type 4551
memory 4550
ute 4550
cer@@ 4546
cks 4539
born 4535
sat 4533
bet 4530
dress 4528
hide 4527
scre@@ 4526
include 4520
kers 4518
anced 4516
staff 4516
see@@ 4515
loo@@ 4514
preci@@ 4513
eight 4512
medi@@ 4496
lab@@ 4492
serious 4492
mini@@ 4487
simple 4487
ensure 4482
direc@@ 4475
related 4471
confi@@ 4466
meant 4465
countries 4464
ines 4462
slow 4459
of@@ 4457
conditions 4456
worked 4452
ado@@ 4451
inst@@ 4446
standing 4446
000 4442
ken 4442
returned 4441
reading 4435
ir 4432
raised 4427
addition 4423
serv@@ 4422
health 4420
master 4420
ton@@ 4419
s-@@ 4415
disp@@ 4413
drinking 4411
sounds 4410
write 4406
dea@@ 4403
wedding 4399
inten@@ 4397
safe 4397
ances 4394
oned 4394
personal 4385
news 4383
aci@@ 4370
anc@@ 4369
search 4367
activities 4358
sna@@ 4357
touch 4353
basis 4351
oo@@ 4348
lunch 4345
tic@@ 4345
fun@@ 4341
2.@@ 4338
contact 4334
ici@@ 4334
ment@@ 4333
pic@@ 4331
remain 4325
economic 4320
rate 4320
jack 4317
choose 4314
wear 4310
chi@@ 4303
ality 4301
directly 4299
holding 4299
sar@@ 4298
serve 4296
legal 4295
process 4285
thu@@ 4278
glass 4276
soldiers 4276
hen@@ 4267
truth 4262
selling 4260
regu@@ 4259
ination 4252
lations 4244
locked 4242
reli@@ 4241
[ 4240
laugh 4240
teeth 4233
ry@@ 4232
din@@ 4228
ky 4228
battle 4224
sun 4224
initi@@ 4221
stro@@ 4221
ably 4220
luc@@ 4220
dge 4211
assu@@ 4210
ef 4210
est 4206
failed 4200
gate 4199
additional 4198
speed 4197
ach 4193
ah 4193
final 4188
flo@@ 4187
mer 4187
listening 4183
losing 4183
pulled 4183
tran@@ 4182
gue 4180
subject 4179
situation 4177
ow@@ 4176
pressure 4175
whoever 4173
bat@@ 4171
va 4171
mark 4167
mination 4163
piece 4163
] 4160
dev@@ 4159
poli@@ 4157
eu@@ 4154
ries 4152
onto 4151
application 4148
conce@@ 4148
:00 4146
… 4146
main 4145
amount 4141
social 4141
abo@@ 4140
eri@@ 4138
pil@@ 4138
00@@ 4137
lon@@ 4134
access 4132
dent 4131
spoke 4128
starting 4127
tes 4127
pictures 4125
charge 4120
guard 4120
followed 4119
hospital 4117
invol@@ 4117
rock 4114
protection 4113
month 4111
concerned 4105
tom@@ 4103
divi@@ 4102
value 4102
í@@ 4102
legs 4096
lines 4096
sis 4093
ony 4092
que 4086
applic@@ 4081
choice 4078
box 4077
some@@ 4073
effect 4069
west 4069
broke 4068
cars 4066
tin@@ 4066
issue 4062
hear@@ 4061
lun@@ 4060
caused 4053
od@@ 4053
def@@ 4046
roo@@ 4046
descri@@ 4041
but@@ 4039
deser@@ 4032
ators 4030
natural 4024
damage 4019
aring 4018
kin 4016
fel@@ 4012
equipment 4009
decided 4008
kar@@ 4008
marriage 4003
objec@@ 4003
tab@@ 4003
destroy 4001
sle@@ 4001
exten@@ 4000
qui@@ 3999
fool 3998
percent 3994
ball 3990
ina 3990
11 3989
down@@ 3989
fro@@ 3988
lights 3984
total 3975
waste 3971
wood 3968
spent 3967
rage 3963
breath 3960
expect 3956
greater 3956
complete 3955
rai@@ 3955
follow 3953
operation 3953
future 3952
wea@@ 3951
development 3948
ples 3946
ery 3945
foot 3944
hur@@ 3942
ile 3933
otherwise 3933
escape 3930
appro@@ 3923
ben@@ 3923
bran@@ 3922
current 3922
obli@@ 3921
sugge@@ 3921
neck 3920
acked 3919
machine 3914
gged 3913
nel 3913
travel@@ 3911
common 3904
drea@@ 3902
equ@@ 3902
involved 3902
lay 3899
'he 3898
beneath 3897
mistake 3896
offer 3894
tically 3893
planning 3892
yer 3892
ek 3891
bio@@ 3889
ple 3887
cked 3885
showed 3885
pleasure 3884
dep@@ 3881
pain@@ 3880
reach 3880
mid@@ 3879
range 3878
apply 3868
management 3865
respect 3865
ping 3864
zation 3858
horse 3846
less@@ 3846
ach@@ 3845
ana 3842
ess@@ 3839
message 3837
significant 3837
individual 3836
var@@ 3835
sely 3832
iting 3828
colle@@ 3827
yesterday 3823
ners 3821
amazing 3820
cy 3819
lived 3819
nature 3819
destroyed 3818
speaking 3815
consider 3811
cell 3809
south 3809
nose 3807
sy@@ 3806
danger 3805
with@@ 3803
heavy 3802
including 3802
you@@ 3801
asleep 3800
fuckin 3800
ial 3800
dropped 3794
president 3794
wonder 3792
sight 3790
music 3787
fir@@ 3785
mac@@ 3781
part@@ 3780
drop 3778
trees 3778
regar@@ 3772
results 3772
north 3760
throw 3760
tem@@ 3756
twenty 3756
gor@@ 3755
flu@@ 3747
technology 3746
self-@@ 3745
killer 3744
smell 3740
beat 3739
vic@@ 3738
gas 3737
ears 3734
mun@@ 3730
lower 3729
research 3728
calls 3726
floor 3726
ful@@ 3719
happens 3714
cry 3712
spi@@ 3711
windows 3710
investment 3707
rose 3706
pha@@ 3703
attention 3702
fly 3701
tho@@ 3701
jesus 3699
head@@ 3696
ore 3695
pted 3693
helping 3692
provi@@ 3689
truck 3687
blow 3686
shows 3686
comb@@ 3682
article 3679
iling 3679
zi@@ 3678
fying 3672
increased 3665
trade 3665
orders 3662
wat@@ 3662
drugs 3660
bon@@ 3655
learn 3653
impre@@ 3649
drug 3648
received 3648
authorities 3642
patient 3639
fair 3637
fingers 3637
handle 3635
smoke 3633
emo@@ 3631
ars 3630
stea@@ 3630
yers 3629
mary 3627
ep@@ 3626
evil 3626
'il 3621
flight 3618
gen 3617
officer 3616
suppose 3616
identi@@ 3613
oil 3613
dies 3610
higher 3606
bodies 3603
ast@@ 3601
esti@@ 3600
eg@@ 3598
europe 3597
ets 3593
avoid 3590
talked 3587
transport 3587
contribu@@ 3585
appeared 3582
promo@@ 3582
peri@@ 3581
bag 3579
tradi@@ 3577
procedure 3575
wards 3571
term 3570
promised 3569
finished 3564
impor@@ 3563
forgotten 3562
harm 3562
careful 3559
crime 3559
mou@@ 3559
forms 3558
mental 3558
bly 3557
error 3557
fat 3557
glad 3557
van 3557
dam@@ 3555
dangerous 3553
sword 3553
post@@ 3551
-a@@ 3550
darkness 3550
cour@@ 3549
tel@@ 3549
places 3548
song 3548
hotel 3546
irs 3538
growing 3537
straight 3537
areas 3535
silence 3535
dreams 3534
anger 3531
questions 3528
cash 3527
likes 3527
thin 3525
sit@@ 3523
station 3523
ached 3521
spend 3519
lock 3518
joke 3517
princi@@ 3511
sufficient 3506
fur@@ 3504
clu@@ 3501
loved 3497
mari@@ 3496
flow@@ 3494
sweet 3492
tiny 3492
doub@@ 3491
appears 3489
writing 3488
igh@@ 3487
compli@@ 3486
conver@@ 3485
ack@@ 3481
seat 3481
imp@@ 3478
step 3478
sudden 3477
gold 3476
199@@ 3475
di 3470
conduc@@ 3468
ep 3468
imag@@ 3468
tie 3468
activity 3467
via 3466
gives 3465
13 3461
3.@@ 3461
mbled 3460
refle@@ 3460
asse@@ 3458
whom 3458
pass 3457
weight 3456
vie@@ 3453
visit 3453
indeed 3449
adv@@ 3448
wonderful 3448
walls 3441
path 3440
cau@@ 3439
continu@@ 3438
neighb@@ 3437
particularly 3436
hardly 3434
bac@@ 3431
taining 3430
40 3429
product 3429
prevent 3427
twice 3425
glo@@ 3424
plan@@ 3423
class 3422
hoping 3422
meters 3422
ending 3420
knowledge 3420
ours 3415
clean 3414
dear 3414
mrs 3414
reali@@ 3414
mal 3413
ack 3409
ere 3406
dist@@ 3405
stran@@ 3405
life@@ 3404
sac@@ 3403
workers 3402
ser 3400
odd 3398
community 3397
ine@@ 3396
m-@@ 3394
ories 3392
planet 3391
tun@@ 3390
picked 3388
gation 3387
designed 3384
warm 3383
written 3383
my@@ 3382
leg@@ 3378
pointed 3373
blo@@ 3372
verse 3371
chief 3370
saved 3366
ple@@ 3365
instal@@ 3363
fl@@ 3362
burn 3361
rain 3360
recently 3360
oc@@ 3359
command 3353
language 3353
ey@@ 3352
pants 3352
quality 3352
disc@@ 3351
turns 3347
tired 3343
train 3343
round 3341
cted 3340
art 3338
ically 3338
micro@@ 3338
mit@@ 3338
various 3338
lips 3336
magic 3336
radio 3333
similar 3331
reports 3330
slo@@ 3330
son@@ 3325
frequ@@ 3323
slightly 3322
za@@ 3321
ón 3319
shar@@ 3316
whi@@ 3312
inspec@@ 3311
books 3310
cl@@ 3306
fol@@ 3305
crew 3301
page 3301
dem@@ 3299
goddamn 3299
ther 3298
television 3297
terri@@ 3297
acks 3294
asshole 3290
build 3290
consul@@ 3290
jail 3290
built 3289
gran@@ 3289
pull 3288
raise 3288
tree 3288
afternoon 3286
created 3285
jun@@ 3285
pper 3285
despite 3283
honey 3279
established 3276
mum 3275
stat@@ 3272
walking 3270
mechan@@ 3269
wore 3268
happening 3267
cz@@ 3266
é 3265
apart 3264
recogni@@ 3261
fire@@ 3260
hi 3260
boyfriend 3259
dressed 3258
card 3256
conclu@@ 3256
soul 3256
cool 3253
issues 3252
dan@@ 3249
share 3248
exclu@@ 3246
opening 3246
mean@@ 3244
grab 3243
authori@@ 3242
missed 3242
accident 3241
terms 3240
opportunity 3239
stor@@ 3236
gging 3234
regular 3232
empty 3231
ounds 3231
institu@@ 3227
files 3226
gations 3225
beginning 3220
honor 3219
inci@@ 3219
staying 3219
lou@@ 3217
awa@@ 3216
humans 3216
compe@@ 3215
aching 3213
high@@ 3213
sn@@ 3213
mit 3212
lin 3211
parties 3211
ust 3209
gh 3208
wer 3207
direct 3206
putting 3205
surely 3205
swit@@ 3205
wit@@ 3205
publi@@ 3204
french 3203
plans 3203
fired 3201
loss 3200
alter@@ 3199
cel@@ 3199
levels 3197
waited 3197
study 3195
request 3194
device 3193
east 3193
cops 3191
did@@ 3188
stage 3186
las 3184
..@@ 3182
setting 3182
any@@ 3180
ounded 3179
store 3179
stron@@ 3178
bus 3175
'it 3174
ill@@ 3173
select 3173
starts 3173
effective 3169
recei@@ 3167
q@@ 3165
rely 3165
driving 3161
named 3161
'the 3154
ise 3154
dose 3151
eur 3150
flying 3149
heads 3149
hurry 3149
plus 3148
disease 3145
throat 3143
dry 3139
ening 3138
travel 3132
image 3130
tent 3123
noticed 3121
earlier 3120
english 3117
prices 3117
require 3117
forever 3113
bility 3112
besides 3109
ku@@ 3108
beside 3103
bloody 3102
names 3102
hang 3101
jan@@ 3101
political 3101
ace@@ 3098
eless 3098
purpose 3096
re-@@ 3096
load 3094
appear 3093
rich 3093
law@@ 3091
speci@@ 3091
responsible 3089
clin@@ 3088
elec@@ 3088
keeping 3086
peace 3085
preven@@ 3082
cab@@ 3078
cation 3077
figure 3073
hood 3072
alle@@ 3069
exc@@ 3069
perfect 3068
paying 3066
explain 3062
german 3059
gradu@@ 3059
o-@@ 3058
civili@@ 3056
possibility 3056
jer@@ 3053
enc@@ 3052
carrying 3051
rights 3049
a.@@ 3046
rer 3045
introduc@@ 3044
marry 3042
shel@@ 3041
tured 3040
grow 3038
island 3038
project 3038
veri@@ 3036
ssive 3035
develop@@ 3034
heat 3034
requirements 3032
tics 3032
dr 3030
mps 3030
pair 3027
reported 3024
lim@@ 3022
high-@@ 3021
international 3021
size 3021
solution 3021
stared 3020
tary 3020
wher@@ 3020
radi@@ 3019
structure 3017
motherfucker 3016
burning 3015
address 3014
dence 3014
won 3014
loves 3013
mommy 3013
event 3012
sign@@ 3010
ski@@ 3008
hearing 3006
eventually 3005
progress 3005
ada@@ 3004
corpor@@ 3004
chair 3002
meat 3000
barely 2999
points 2999
exist 2997
mic 2996
person@@ 2995
ancient 2991
ham@@ 2991
desi@@ 2989
leaves 2988
ko 2987
thr@@ 2987
prepared 2985
bomb 2983
potential 2983
shop 2983
star 2982
guards 2981
disappeared 2979
in-@@ 2979
totally 2978
whe@@ 2978
attemp@@ 2977
supply 2975
justi@@ 2974
prepar@@ 2970
property 2968
repor@@ 2968
inno@@ 2965
turning 2965
0 2963
shirt 2958
impact 2957
ride 2956
learned 2949
we'il 2949
manufac@@ 2948
you'il 2948
compla@@ 2946
definitely 2946
ad 2944
claim 2944
pol@@ 2943
tw@@ 2941
fit 2940
limited 2940
susp@@ 2940
victim 2940
18@@ 2939
network 2938
night@@ 2937
acts 2936
paper 2936
thoughts 2936
horrible 2934
distance 2933
inte@@ 2933
sending 2933
chest 2932
decisions 2932
resources 2932
ain 2931
cat 2931
foreign 2931
strength 2931
spir@@ 2930
ancy 2929
cing 2928
easier 2928
powerful 2928
cast 2926
draw 2926
tax@@ 2926
warning 2924
hoo@@ 2922
laughing 2922
lovely 2922
silent 2922
forgive 2921
pun@@ 2921
record 2921
half-@@ 2920
merely 2920
shown 2920
visit@@ 2920
heaven 2917
america 2915
example 2915
feels 2915
dation 2912
difficul@@ 2912
ought 2912
nine 2911
boss 2910
signed 2910
relevant 2908
projects 2901
sav@@ 2901
procedures 2897
logy 2896
ld@@ 2894
ist 2893
discu@@ 2892
harry 2892
receive 2891
lied 2887
agreement 2885
eding 2885
video 2884
negoti@@ 2882
alo@@ 2880
gotten 2880
photos 2880
ring@@ 2880
border 2879
multi@@ 2879
rat@@ 2879
burned 2878
atory 2877
detec@@ 2877
hello 2877
faces 2876
response 2876
sum@@ 2875
christ 2872
purcha@@ 2869
added 2868
bar 2868
dancing 2867
aircraft 2866
aled 2866
disa@@ 2865
bear 2864
notice 2863
sty 2860
science 2859
stan@@ 2855
aches 2854
approach 2854
deter@@ 2852
dur@@ 2852
remembered 2852
wild 2852
vac@@ 2851
changing 2850
st-@@ 2850
mbling 2845
spar@@ 2845
tou@@ 2845
idiot 2844
demo@@ 2843
lets 2843
set@@ 2843
thir@@ 2843
tests 2842
carefully 2838
14 2837
ong 2837
upset 2837
ty-@@ 2836
announ@@ 2835
drawn 2835
ever@@ 2834
investigation 2833
ler@@ 2833
unfortunately 2833
wondered 2833
classi@@ 2831
tained 2831
hiding 2826
murdered 2826
laun@@ 2825
tted 2825
12@@ 2824
river 2820
doctors 2819
members 2818
j 2817
lots 2817
puni@@ 2817
rol@@ 2817
user 2817
low@@ 2816
bene@@ 2815
insurance 2815
steal 2815
threw 2814
wine 2814
crea@@ 2813
hil@@ 2813
count 2809
acci@@ 2808
applied 2808
finding 2808
knowing 2807
ligh@@ 2805
moreover 2805
ale 2804
planned 2804
leading 2800
–@@ 2797
gun@@ 2796
girlfriend 2794
reasons 2793
cle@@ 2790
til@@ 2790
k-@@ 2788
managed 2788
shooting 2788
thor@@ 2788
para@@ 2787
enter 2786
commit@@ 2784
hall 2784
possibly 2783
survi@@ 2783
suit 2782
effects 2781
arily 2780
hidden 2780
ak 2779
lo 2779
mc@@ 2779
tough 2779
six@@ 2778
stolen 2778
ual 2774
ford 2773
anywhere 2772
absolutely 2771
john 2771
beg@@ 2768
tage 2765
teen 2763
breathing 2760
ung 2759
consu@@ 2758
500 2757
ate@@ 2757
crying 2756
numbers 2756
target 2756
co 2755
risks 2755
commander 2754
repe@@ 2754
tures 2754
expre@@ 2753
program@@ 2753
noise 2749
competition 2748
dents 2747
forest 2745
ction 2742
rou@@ 2741
wondering 2741
discovered 2740
falling 2740
lands 2740
arrived 2738
suff@@ 2737
regulation 2735
awful 2734
relax 2734
allows 2733
onal 2733
za 2730
hole 2729
moon 2728
un 2728
somehow 2725
dom 2724
4.@@ 2723
attempt 2723
mic@@ 2723
compani@@ 2718
foo@@ 2716
physi@@ 2716
ey 2715
mostly 2714
rub@@ 2714
ö@@ 2713
college 2711
currently 2711
normally 2710
recent 2710
black@@ 2705
forces 2705
credit 2704
option 2704
intended 2700
cen@@ 2696
christmas 2696
satis@@ 2696
strugg@@ 2696
tea@@ 2696
arri@@ 2694
bucks 2694
giant 2694
neu@@ 2694
pit@@ 2694
actual 2691
union 2691
vy 2691
headed 2690
list@@ 2690
acting 2689
shame 2689
vehicle 2688
emer@@ 2687
logi@@ 2687
exp@@ 2685
understood 2685
spread 2683
benefit 2681
broad@@ 2680
dged 2680
proof 2680
condition 2679
games 2679
on-@@ 2679
everywhere 2676
beer 2675
active 2674
ato@@ 2671
capacity 2671
roman@@ 2671
assessment 2670
blu@@ 2669
sale 2669
dru@@ 2668
separ@@ 2668
base 2667
creature 2667
comman@@ 2666
ian 2666
emergency 2664
entered 2664
equi@@ 2664
i-i 2664
interesting 2664
shoo@@ 2664
heading 2663
requires 2663
employment 2662
sector 2662
formed 2659
nee@@ 2659
stories 2659
los 2658
seriously 2657
mountain 2655
ä@@ 2655
rise 2654
deb@@ 2653
mb 2653
soft 2653
stance 2653
thousands 2651
realized 2648
ax@@ 2647
& 2640
happ@@ 2639
pel@@ 2639
victims 2639
buying 2638
stics 2638
sca@@ 2631
ai@@ 2630
cking 2628
assass@@ 2626
bright 2626
ution 2626
cent@@ 2625
color 2625
drew 2625
rin@@ 2625
admi@@ 2623
figured 2623
metal 2622
remove 2622
served 2620
sad 2619
uses 2616
concern 2614
singing 2613
park 2612
struck 2612
treated 2612
refer@@ 2611
xed 2610
parts 2609
accept 2607
faster 2607
payment 2605
played 2603
butt 2602
emi@@ 2602
mem@@ 2601
tain 2601
sof@@ 2600
teacher 2600
display 2597
mon 2597
pin@@ 2596
sequ@@ 2595
increas@@ 2594
russian 2594
kiss 2593
liked 2593
ops 2593
funds 2592
smo@@ 2592
believed 2588
cally 2588
quar@@ 2588
streets 2587
hoped 2586
pose 2586
py@@ 2586
queen 2586
troops 2585
interru@@ 2584
wn@@ 2584
growth 2582
activ@@ 2580
hit@@ 2580
location 2579
church 2577
effort 2577
legislation 2577
join 2576
photo 2576
touched 2575
sations 2572
summer 2572
insane 2571
assume 2570
rescue 2570
tific@@ 2567
aff@@ 2566
illu@@ 2566
selected 2566
thro@@ 2565
reduce 2563
encou@@ 2562
rule 2562
stered 2562
rob@@ 2561
pack@@ 2559
letter 2558
aged 2557
survive 2556
note 2555
innocent 2553
insi@@ 2553
efforts 2551
plant 2551
wo@@ 2551
sold 2550
breakfast 2549
legi@@ 2549
consi@@ 2547
woo@@ 2547
associated 2546
custom@@ 2546
meal 2546
pa 2545
ld 2544
chosen 2539
tail 2537
provisions 2534
confir@@ 2533
ray 2533
trip 2532
shment 2530
remains 2529
yel@@ 2529
laid 2528
prepare 2527
scu@@ 2526
silly 2525
consumers 2522
cooperation 2522
internet 2522
ferred 2521
enjo@@ 2520
finish 2518
believ@@ 2516
competi@@ 2516
ental 2516
conversation 2515
remo@@ 2515
ney 2514
duty 2512
answered 2511
appe@@ 2511
ki 2511
regard 2511
tain@@ 2511
audi@@ 2510
enjoy 2509
fault 2509
feed 2508
failure 2506
mation 2506
source 2505
daily 2504
lawyer 2504
cs 2501
helped 2497
stomach 2497
technical 2496
distur@@ 2495
double 2492
ken@@ 2492
secre@@ 2491
extra 2490
groups 2489
mur@@ 2489
showing 2489
movies 2488
slept 2486
buddy 2485
jam@@ 2484
program 2484
society 2484
ink 2483
minimum 2481
saving 2481
highly 2479
contract 2478
female 2477
prove 2477
suspec@@ 2477
ics 2476
modi@@ 2476
material 2475
reduc@@ 2474
gers 2472
suspect 2472
vol@@ 2472
iness 2471
connection 2470
grew 2469
ich 2469
sen 2469
billion 2468
dered 2468
mers 2467
surr@@ 2467
tac@@ 2467
leg 2466
responsibility 2466
ee 2464
race 2464
tears 2462
placed 2460
ugly 2460
fresh 2456
depen@@ 2455
gla@@ 2455
ie@@ 2455
rious 2454
tells 2454
eral 2452
myster@@ 2452
who@@ 2451
aut@@ 2450
chinese 2450
ban 2449
keeps 2449
mg 2449
regret 2449
opera@@ 2448
remained 2446
provides 2445
generally 2444
mass 2444
brown 2443
fought 2443
replied 2443
tt 2443
cations 2442
arrang@@ 2441
nuclear 2440
hat@@ 2439
mut@@ 2439
assistance 2437
claims 2437
tled 2437
bing 2436
graph@@ 2436
syn@@ 2436
central 2435
quali@@ 2435
winter 2435
web 2433
band 2432
enab@@ 2432
kal@@ 2431
ama@@ 2430
tering 2429
client 2428
familiar 2428
fixed 2427
bringing 2425
gain 2425
grown 2425
lor@@ 2425
ourselves 2425
practice 2424
concerning 2422
sw@@ 2422
wrote 2422
25 2418
lers 2418
mped 2417
moun@@ 2416
sia 2416
apologize 2415
bby 2415
by@@ 2414
function 2414
knife 2414
cells 2413
connec@@ 2413
ect 2413
aw@@ 2412
clar@@ 2412
mor 2412
accu@@ 2411
signs 2411
flesh 2410
gently 2410
match 2408
prior 2408
qua@@ 2404
co-@@ 2403
goods 2403
engine 2402
studies 2402
circumstances 2401
chec@@ 2400
press 2400
san 2400
fallen 2399
mentioned 2399
s.@@ 2398
vision 2397
boun@@ 2396
funding 2396
ignor@@ 2396
stick 2396
free@@ 2395
belong 2393
-up 2392
attrac@@ 2392
posse@@ 2392
effec@@ 2391
thick 2391
dou@@ 2390
patter@@ 2390
begun 2388
offici@@ 2388
smart 2388
ghtly 2387
sam@@ 2387
vered 2386
seek 2385
ison 2383
operating 2383
coo@@ 2382
ga 2382
extremely 2379
finger 2379
sing@@ 2379
capital 2378
rement 2378
shadow 2377
consequ@@ 2376
enterpri@@ 2376
pot@@ 2376
users 2376
blan@@ 2375
developed 2375
expecting 2375
wra@@ 2375
directive 2374
section 2374
agreed 2373
frea@@ 2373
lish 2373
dor@@ 2372
priv@@ 2372
restri@@ 2371
enter@@ 2369
cin@@ 2368
dude 2366
assi@@ 2365
focus 2365
wr@@ 2365
eared 2364
mping 2364
fav@@ 2363
secu@@ 2363
nights 2362
letting 2361
surface 2361
zo@@ 2361
correct 2359
ital 2359
obvious 2359
camp 2358
domin@@ 2356
opinion 2356
accep@@ 2354
batt@@ 2354
tial 2354
forced 2353
unit 2353
standard 2352
events 2351
itation 2349
measure 2349
nervous 2349
resul@@ 2349
agent 2348
closer 2348
comfortable 2348
desc@@ 2348
wounded 2348
dering 2347
bun@@ 2345
lowing 2345
spot 2345
apartment 2341
nur@@ 2341
ral 2341
surve@@ 2341
spe@@ 2340
judge 2338
fair@@ 2337
substan@@ 2337
dirty 2336
forgot 2336
storm 2335
tte 2335
acce@@ 2333
arrest 2333
peter 2333
ick 2332
track 2332
performance 2331
steps 2331
shoes 2330
suc@@ 2330
one-@@ 2329
older 2328
budget 2327
consci@@ 2327
income 2327
deman@@ 2325
driver 2324
horses 2324
to-@@ 2324
vote 2324
center 2323
characteri@@ 2323
difference 2323
ket 2323
than@@ 2323
benefits 2322
customers 2322
ache 2318
drove 2318
net 2318
release 2318
throughout 2318
occu@@ 2317
operations 2317
bloo@@ 2315
dick 2315
pieces 2314
ghts 2312
suffering 2311
unk 2311
conv@@ 2310
mitted 2309
run@@ 2309
gy 2308
jac@@ 2308
gur@@ 2305
parti@@ 2304
quietly 2304
aries 2303
bes 2303
ra 2303
new@@ 2302
witness 2302
m. 2300
proper 2299
beauty 2298
removed 2298
bridge 2297
dat@@ 2297
dated 2297
tiv@@ 2297
kets 2296
vor@@ 2295
fici@@ 2294
complex 2292
council 2292
freedom 2292
released 2292
swee@@ 2292
confu@@ 2291
drunk 2291
staring 2291
volu@@ 2291
ol 2290
correc@@ 2289
gger 2289
records 2289
200 2288
60 2288
documents 2288
education 2288
swear 2288
eds 2286
hanging 2286
ror 2286
traffic 2286
industri@@ 2285
provision 2284
fron@@ 2283
george 2283
scienti@@ 2283
swa@@ 2283
16 2282
ght 2282
tight 2282
medicine 2280
eth@@ 2279
method 2279
reas@@ 2278
wake 2277
fuel 2276
accor@@ 2275
ze@@ 2275
iron 2274
comple@@ 2273
24 2272
explosion 2272
native 2272
suring 2272
ond 2271
equal 2270
violence 2270
further@@ 2269
net@@ 2268
criminal 2267
jump 2267
stab@@ 2267
respec@@ 2266
sales 2266
threat 2265
reduced 2264
checked 2263
tery 2263
vani@@ 2263
drinks 2262
gray 2262
ideas 2262
ference 2261
vessel 2261
liber@@ 2260
tea 2260
grand 2259
trial 2259
implemen@@ 2257
truly 2257
bud@@ 2255
mani@@ 2254
oning 2254
adequate 2253
admit 2253
advi@@ 2252
fishing 2251
thirty 2251
breathe 2248
compar@@ 2248
limit 2248
attacked 2246
debt 2246
pack 2246
uncle 2246
ous@@ 2245
students 2244
ade 2242
employ@@ 2242
ü@@ 2241
č@@ 2241
sees 2240
clean@@ 2239
dings 2239
rit@@ 2239
presen@@ 2238
respon@@ 2238
sexual 2238
arti@@ 2237
aimed 2236
realize 2236
persons 2235
kidding 2234
secrets 2234
meter 2232
nat@@ 2232
hungry 2231
maximum 2230
monitoring 2230
cher 2229
essential 2228
thered 2228
village 2228
ism 2227
avoi@@ 2225
5.@@ 2224
bet@@ 2224
treat 2224
ben 2223
bought 2223
applications 2222
experim@@ 2222
š@@ 2221
behavi@@ 2220
banks 2219
commercial 2219
defense 2219
govern@@ 2219
telephone 2219
contain 2218
fit@@ 2217
cross 2216
blin@@ 2215
industry 2212
bird 2211
granted 2210
posi@@ 2210
committee 2209
existing 2209
guilty 2209
speciali@@ 2208
there@@ 2208
charged 2207
focu@@ 2206
stuck 2206
cup 2205
vement 2205
non@@ 2204
task 2204
cea@@ 2203
mble 2203
cultural 2199
replaced 2199
separate 2199
sides 2199
spirit 2199
options 2198
pow@@ 2198
coordin@@ 2197
crap 2197
labor@@ 2196
environmental 2194
exha@@ 2194
analysis 2193
g-@@ 2193
reduction 2193
ior 2191
kne@@ 2189
connected 2186
convinc@@ 2185
communication 2184
distribu@@ 2183
stantly 2183
ena 2181
included 2181
kly 2180
nit@@ 2180
succe@@ 2180
matters 2178
professional 2178
18 2177
direction 2177
gn@@ 2176
heal@@ 2176
faced 2175
ha 2175
post 2175
rup@@ 2174
sons 2174
welcome 2174
dogs 2173
eigh@@ 2173
germany 2173
exerci@@ 2171
illegal 2170
screaming 2170
stars 2170
fer 2169
vari@@ 2168
bone 2167
collec@@ 2167
annual 2166
milk 2165
thre@@ 2165
arrested 2162
scra@@ 2162
becoming 2161
eve 2161
mainly 2161
department 2160
enable 2160
aned 2159
sul@@ 2159
wol@@ 2159
male 2158
tend 2158
argu@@ 2157
decide 2156
follows 2156
tel 2156
brothers 2155
susta@@ 2155
sage 2154
admini@@ 2152
atures 2151
feder@@ 2151
intelligence 2151
ration 2150
improve 2149
mir@@ 2149
united 2146
30@@ 2145
ron 2145
pire 2142
dumb 2141
internal 2141
cute 2140
desper@@ 2140
online 2140
_@@ 2139
carri@@ 2139
acted 2136
agri@@ 2136
rapidly 2133
increasing 2132
testing 2132
club 2131
titude 2131
balls 2128
gely 2127
gin 2125
vam@@ 2125
stepped 2124
van@@ 2124
balance 2122
millions 2122
stole 2122
taste 2122
taught 2122
unt 2120
comfor@@ 2119
land@@ 2119
evol@@ 2116
fted 2116
includes 2116
rid 2116
bigger 2115
secon@@ 2114
stealing 2114
fifty 2113
implementation 2113
zes 2112
scar@@ 2111
armed 2110
mis@@ 2109
yard 2109
birth 2107
lack 2106
entirely 2105
produce 2105
tations 2105
ugh@@ 2104
ky@@ 2102
d. 2101
displa@@ 2101
prin@@ 2101
ker@@ 2099
ues 2099
prac@@ 2098
rooms 2098
located 2097
frightened 2096
mly 2096
remin@@ 2096
smiled 2096
bol@@ 2095
stress 2093
50@@ 2092
birthday 2092
gy@@ 2092
successful 2092
crisis 2090
enemies 2090
leader 2090
mates 2090
p-@@ 2090
pati@@ 2089
pushed 2089
ght@@ 2088
families 2087
memories 2087
scheme 2087
ó@@ 2087
spoken 2086
charges 2085
checks 2085
plants 2085
usual 2085
advantage 2084
grandma 2084
hunting 2084
scene 2084
becomes 2083
route 2083
'em 2082
gru@@ 2082
success 2082
worst 2080
claimed 2079
deal@@ 2079
rising 2079
compre@@ 2078
ored 2078
code 2077
quanti@@ 2077
teach 2077
surpri@@ 2076
twelve 2076
anti-@@ 2075
sear@@ 2075
snow 2075
mountains 2074
environment 2073
reve@@ 2073
analy@@ 2072
tall 2072
citizens 2071
devices 2071
jec@@ 2070
well-@@ 2070
cried 2068
holders 2068
signal 2067
categ@@ 2065
observed 2064
pres@@ 2064
species 2064
'we 2063
associ@@ 2063
cent 2063
ov@@ 2063
feelings 2062
whit@@ 2062
ling@@ 2061
main@@ 2061
monster 2061
wave 2061
creatures 2060
ladies 2059
sharp 2059
sta 2059
perfectly 2057
se-@@ 2057
twenty-@@ 2057
­@@ 2057
physical 2056
plenty 2056
le-@@ 2054
prohi@@ 2052
breaking 2051
journey 2051
two-@@ 2051
gle 2050
tici@@ 2047
sma@@ 2044
wound 2042
calcul@@ 2040
sal 2040
time@@ 2040
appreci@@ 2038
rocks 2038
work@@ 2038
cir@@ 2037
camera 2036
stly 2035
authority 2034
exper@@ 2034
vir@@ 2034
fts 2030
blame 2029
steel 2028
wings 2028
automatically 2027
dol@@ 2027
ordinary 2027
specific@@ 2027
wl 2026
performed 2025
achieved 2024
text 2024
university 2022
consist@@ 2021
holy 2021
execu@@ 2020
escaped 2019
liter@@ 2019
shoulder 2019
ene@@ 2018
log@@ 2018
tat@@ 2018
movement 2017
nation 2017
affect 2016
airport 2016
bert 2015
practic@@ 2015
york 2015
hydro@@ 2014
bones 2013
minated 2013
occurred 2013
tow@@ 2013
org@@ 2011
properly 2011
offered 2010
dingly 2009
ja 2009
proud 2009
nie 2008
sk 2008
skills 2008
dan 2007
document 2006
sau@@ 2006
duce 2005
financing 2005
cry@@ 2004
establi@@ 2004
ility 2003
p.@@ 2003
ater 2002
ba 2002
belongs 2001
port 2001
pre-@@ 2001
streng@@ 2001
pregnant 2000
suicide 1999
compen@@ 1998
famous 1998
kie 1998
nuts 1998
status 1998
vehicles 1998
bloc@@ 1996
yellow 1996
pleased 1995
gic 1994
officers 1992
ordered 1992
agre@@ 1991
pret@@ 1991
aside 1990
bin@@ 1990
bom@@ 1990
turing 1990
fellow 1989
accoun@@ 1988
tongue 1988
construction 1987
effici@@ 1987
add 1986
screen 1986
occur 1985
eggs 1984
john@@ 1983
visible 1983
ini@@ 1982
slu@@ 1982
pho@@ 1981
amoun@@ 1980
aud@@ 1980
confe@@ 1979
hung 1979
regarding 1979
gene@@ 1978
houses 1978
stre@@ 1978
administration 1977
ense 1976
lic 1976
disap@@ 1974
flew 1974
vis@@ 1974
zar@@ 1974
deci@@ 1972
mail 1971
role 1971
ound 1970
infra@@ 1969
matic 1969
develop 1968
programme 1968
allow@@ 1967
bound 1965
concerns 1965
contains 1965
17 1963
exchange 1963
investments 1963
bite 1962
fix 1962
mom@@ 1962
om 1961
content 1960
ii 1959
therapy 1959
unknown 1959
bbed 1958
excellent 1958
gar 1958
vul@@ 1956
em 1954
hou@@ 1954
keys 1954
unities 1953
dealing 1952
pal 1952
perio@@ 1950
gan 1949
stration 1949
gas@@ 1948
busy 1947
fish@@ 1947
france 1947
images 1947
psycho@@ 1947
subsi@@ 1947
thi@@ 1947
identified 1946
michael 1946
photo@@ 1946
marks 1945
expec@@ 1944
tom 1944
ron@@ 1942
ures 1942
bow 1941
letters 1941
q 1940
ruin 1940
instruments 1939
phar@@ 1939
produced 1939
basic 1938
cutting 1938
sake 1938
13@@ 1937
confidence 1937
pay@@ 1937
scientific 1937
bel 1936
occa@@ 1935
paul 1935
defe@@ 1933
fill 1933
rent 1933
ms. 1931
stayed 1931
student 1931
vel 1931
bbing 1930
esc@@ 1930
china 1929
engine@@ 1929
expression 1929
demand 1928
strategy 1927
jobs 1925
wha@@ 1925
shore 1924
hunt 1923
scream 1923
lac@@ 1922
previous 1922
wee@@ 1922
gies 1921
markets 1921
um@@ 1921
stry 1920
hin@@ 1919
belt 1918
ric 1917
cream 1916
ji@@ 1916
ards 1915
runs 1914
mmed 1913
victory 1913
clothing 1912
larger 1912
lifted 1912
a-@@ 1911
whenever 1911
teen@@ 1910
dust 1909
kel@@ 1908
guarantee 1907
lowed 1907
compon@@ 1906
gay 1906
grandmother 1906
dle 1905
stal@@ 1905
techni@@ 1905
questi@@ 1904
relationship 1903
euro@@ 1902
chic@@ 1901
ffs 1901
encoun@@ 1900
rank 1900
accur@@ 1898
century 1898
cities 1898
evalu@@ 1897
suffered 1896
identify 1895
thed 1893
tools 1891
buildings 1890
protec@@ 1890
appli@@ 1889
units 1889
achieve 1888
sand 1888
hill 1887
hopefully 1887
stones 1887
affected 1886
vil@@ 1886
nation@@ 1885
pleasant 1885
guar@@ 1884
kick 1884
strate@@ 1884
tha 1884
compared 1882
alty 1881
mption 1881
sup@@ 1881
typic@@ 1880
zy 1879
dam 1878
dia@@ 1878
stock 1878
strea@@ 1878
counter@@ 1877
statement 1877
chil@@ 1876
gent@@ 1876
honest 1876
committed 1875
stable 1875
sue 1875
strike 1874
average 1873
details 1872
justice 1872
limits 1870
overall 1869
payments 1869
injec@@ 1868
smoking 1867
0,@@ 1866
fting 1866
liqu@@ 1865
eaten 1864
poin@@ 1864
rene@@ 1864
creating 1862
day@@ 1862
reply 1862
server 1862
dun@@ 1860
trained 1860
lows 1859
silver 1859
\@@ 1858
iter@@ 1857
rates 1857
solve 1857
powers 1856
prisoners 1854
demonstr@@ 1853
understanding 1853
ve-@@ 1853
entry 1852
err@@ 1852
marked 1852
stitu@@ 1852
suggest 1852
ounding 1851
professor 1851
closing 1849
covering 1849
policies 1849
contracts 1848
kitchen 1848
lit 1848
prince 1848
rying 1848
sensi@@ 1848
passengers 1847
gol@@ 1846
rout@@ 1846
leads 1845
scare 1844
abilities 1843
partner 1843
coat 1842
destro@@ 1842
fat@@ 1842
machines 1842
mm 1842
paragraph 1842
greatest 1841
investi@@ 1841
stil@@ 1840
temperature 1840
á 1840
contrac@@ 1839
encies 1839
sam 1839
secure 1839
cali@@ 1838
intention 1837
massive 1837
original 1837
alien 1836
fab@@ 1835
injured 1835
mention 1835
suffer 1835
protected 1833
nia 1832
tane@@ 1832
weak 1832
career 1831
birds 1830
wri@@ 1830
businesses 1829
hundreds 1829
advice 1828
transpor@@ 1827
youth 1827
someday 1826
loaded 1825
ot 1825
causing 1823
chicken 1823
sni@@ 1823
spending 1823
bab@@ 1822
weigh@@ 1822
former 1821
after@@ 1820
chapter 1820
employees 1820
loa@@ 1820
pilot 1820
fifteen 1819
joe 1819
medic@@ 1819
beast 1818
al-@@ 1817
concent@@ 1817
differ@@ 1816
dness 1816
stitute 1816
ests 1815
judg@@ 1813
deeply 1812
types 1812
vast 1812
'and 1811
cement 1811
scale 1811
shouted 1810
ids 1808
o'clock 1808
simp@@ 1808
culture 1807
ade@@ 1806
kra@@ 1806
box@@ 1805
nan@@ 1805
u.s. 1805
ho 1803
necess@@ 1803
conven@@ 1802
gift 1802
ridiculous 1802
som@@ 1802
acceler@@ 1801
barri@@ 1800
joy 1800
virtu@@ 1800
cards 1799
sel 1799
zard 1799
quo@@ 1796
searching 1796
transfer 1796
circu@@ 1795
enormous 1795
adver@@ 1794
murderer 1793
17@@ 1792
ight 1792
smiling 1791
th-@@ 1790
control@@ 1789
conflic@@ 1788
spring 1788
tedly 1788
eld 1787
long-term 1787
issued 1786
mmy 1786
reality 1786
cia 1785
colla@@ 1785
false 1784
figures 1784
injury 1783
14@@ 1782
ative 1782
proposal 1782
supper 1781
fed 1780
lately 1780
global 1779
noti@@ 1779
positive 1778
too@@ 1777
worn 1777
liver 1776
1,@@ 1775
nothin 1775
listened 1774
controls 1773
discuss 1773
him@@ 1773
measu@@ 1773
poses 1773
laughed 1772
missi@@ 1772
tables 1772
explained 1771
fleet 1771
kills 1771
apologi@@ 1769
inging 1769
ren 1769
roll 1769
electronic 1768
fate 1768
centre 1767
entially 1767
loud 1767
experienced 1766
ague 1765
inde@@ 1765
situ@@ 1765
thee 1765
defined 1764
e-mail 1764
wow 1764
controlled 1763
cross-@@ 1763
curren@@ 1763
one@@ 1763
shu@@ 1763
ast 1762
cky 1762
gration 1762
london 1762
blade 1761
certificate 1761
dar 1761
guarante@@ 1760
requ@@ 1760
plat@@ 1759
fal@@ 1757
split 1757
storage 1756
adjust@@ 1755
scen@@ 1753
insul@@ 1752
useful 1752
oral 1751
inal 1749
rail@@ 1749
incredible 1748
sures 1748
efficient 1747
helps 1747
zu@@ 1747
design 1746
ex-@@ 1746
interpre@@ 1746
model 1746
administrative 1745
tape 1745
tox@@ 1745
laws 1744
nec@@ 1744
corridor 1742
outta 1742
sett@@ 1742
aging 1741
goodbye 1741
modern 1741
zer 1741
dges 1740
firm 1740
style 1740
gest 1739
consumer 1738
continues 1738
hero@@ 1738
sites 1738
writ@@ 1738
paren@@ 1737
fs 1736
lion 1736
prote@@ 1736
blind 1735
attacks 1734
cop 1734
graph 1733
yards 1733
assets 1732
awesome 1732
betra@@ 1732
combat 1732
plate 1732
bullshit 1731
ques 1731
rece@@ 1731
determine 1730
region 1730
rif@@ 1730
viol@@ 1730
ales 1729
gentlemen 1727
hypo@@ 1727
occasionally 1726
pation 1726
smoo@@ 1725
wid@@ 1725
experi@@ 1724
propo@@ 1724
shoulders 1724
shock 1723
wet 1723
wounds 1723
evaluation 1722
public@@ 1722
pou@@ 1721
concentr@@ 1720
sets 1720
sion@@ 1720
vers@@ 1719
loy@@ 1717
stant 1717
cem@@ 1716
emplo@@ 1716
linked 1716
cleaning 1715
han 1715
mming 1715
revenge 1715
desk 1714
inha@@ 1714
operate 1714
1,000 1713
injuries 1713
media 1713
square 1713
apo@@ 1712
brief@@ 1712
stopping 1712
waves 1712
frame@@ 1711
sks 1711
belly 1710
fashi@@ 1709
hat 1709
desp@@ 1708
tex@@ 1708
tious 1708
icious 1707
partici@@ 1707
expenditure 1706
burst 1705
thers 1705
vege@@ 1705
differences 1704
-year-old 1703
awake 1702
ried 1701
'what 1700
buried 1700
t. 1700
recomm@@ 1699
li 1698
300 1697
button 1697
reason@@ 1697
suitable 1697
swal@@ 1697
80 1696
kicked 1696
tili@@ 1696
• 1696
lung 1695
multiple 1695
ots 1695
excep@@ 1694
lined 1694
medicines 1694
frag@@ 1693
mess 1693
agents 1692
chances 1692
med@@ 1692
rel@@ 1691
standards 1691
unusual 1691
reci@@ 1690
completed 1689
election 1689
abs@@ 1688
avi@@ 1688
belon@@ 1687
official 1687
accused 1686
nasty 1686
determined 1685
economy 1685
link 1685
addi@@ 1684
reference 1684
restaurant 1684
chem@@ 1683
particip@@ 1683
0.@@ 1682
babies 1682
fr@@ 1682
middle 1682
ports 1682
explanation 1681
shut@@ 1680
ces 1679
god@@ 1679
h-@@ 1679
custo@@ 1678
protecting 1678
gli@@ 1677
ham 1677
ults 1677
arch@@ 1675
cer 1675
mo 1675
earing 1673
weather 1673
crow@@ 1671
dela@@ 1671
manner 1671
lement 1670
moments 1670
bullet 1668
grass 1668
pon@@ 1668
sible 1668
deta@@ 1667
ele@@ 1667
existence 1666
pounds 1666
confirmed 1665
director 1664
prefer 1664
requested 1664
individu@@ 1663
items 1663
length 1662
mea@@ 1662
bits 1660
brains 1660
civil 1659
personally 1659
drawing 1658
gin@@ 1658
len 1658
sno@@ 1657
transparen@@ 1657
+ 1655
ski 1655
block 1654
quit 1654
attorney 1653
chee@@ 1653
facing 1653
instinc@@ 1653
stands 1653
are@@ 1652
no-one 1652
tool 1652
boats 1651
gover@@ 1651
respond 1651
thomas 1651
cigare@@ 1650
represen@@ 1650
acqui@@ 1649
challen@@ 1649
soldier 1649
rep@@ 1648
touri@@ 1648
water@@ 1648
ye 1648
accepted 1647
rare 1647
vation 1647
expan@@ 1646
rolled 1646
clients 1645
h3@@ 1645
help@@ 1645
version 1645
terrori@@ 1644
flowers 1643
gaze 1642
suspici@@ 1642
hyper@@ 1641
investig@@ 1641
reaction 1641
sus 1641
st. 1639
submitted 1639
sym@@ 1638
click 1637
ocean 1637
useless 1637
western 1637
agree 1636
fund 1636
grandfather 1635
plu@@ 1635
recommended 1635
rema@@ 1635
sport 1635
shots 1634
negative 1633
hard@@ 1632
instrument 1632
slow@@ 1632
sors 1632
wise 1632
cancer 1631
cousin 1631
nes 1631
alarm 1630
presence 1630
dding 1629
oner 1629
throwing 1629
sory 1628
care@@ 1627
form@@ 1627
messages 1627
'that 1626
chemical 1626
instructions 1626
louis 1626
stream 1625
:@@ 1624
mexic@@ 1624
pea@@ 1624
electricity 1623
wash 1623
winning 1622
door@@ 1621
item 1621
flat 1620
priority 1620
smaller 1620
edge 1619
bags 1618
electric 1618
grant 1618
vessels 1618
floo@@ 1617
golden 1617
jumped 1617
nodded 1617
od 1617
coast 1616
thrown 1616
ane 1615
profit 1615
favor@@ 1614
idi@@ 1614
repeat 1614
convic@@ 1613
liar 1613
review 1613
vent@@ 1613
weekend 1613
е@@ 1613
dor 1612
print 1612
defend 1611
ected 1611
ide@@ 1611
invited 1611
your@@ 1611
ddy 1610
servation 1610
os@@ 1609
copy 1607
defini@@ 1607
eur@@ 1606
accounts 1605
crossed 1605
dozen 1605
mated 1605
nov@@ 1605
ong@@ 1605
ssy 1605
whore 1605
wned 1605
cket 1604
sunday 1604
eper 1603
del 1602
promi@@ 1602
population 1601
maintain 1600
surgery 1599
mili@@ 1597
object 1596
paris 1596
relating 1596
four@@ 1595
sque@@ 1595
tren@@ 1595
dig@@ 1594
expensive 1594
colonel 1593
func@@ 1593
kidna@@ 1591
knees 1591
ud 1591
recommen@@ 1590
bottle 1589
d'@@ 1589
photograph@@ 1589
schedu@@ 1589
thly 1589
clouds 1588
finds 1588
independent 1588
fields 1587
fuc@@ 1587
replac@@ 1587
reti@@ 1587
i-@@ 1586
trail 1586
ckets 1585
darling 1585
dity 1584
external 1584
fortun@@ 1584
ie 1584
stati@@ 1582
colum@@ 1581
argument 1580
deaths 1580
itor 1580
numer@@ 1580
tower 1580
dish 1579
pois@@ 1579
expo@@ 1578
significantly 1578
foun@@ 1577
marine 1577
house@@ 1576
weal@@ 1575
dest 1573
e.@@ 1573
ints 1573
latest 1573
learning 1573
nings 1573
disor@@ 1572
lan 1571
о@@ 1571
tied 1570
utes 1570
bilities 1569
challeng@@ 1569
estab@@ 1569
obtained 1569
que@@ 1569
chose 1568
planes 1568
achiev@@ 1567
alties 1567
voices 1567
chamber 1566
evid@@ 1566
thering 1566
sergeant 1565
offers 1564
ech 1563
vely 1563
assault 1562
selection 1562
theory 1562
tting 1562
ority 1561
termin@@ 1561
vit@@ 1561
cake 1560
dating 1560
dden 1560
fru@@ 1560
joined 1560
leather 1560
symbo@@ 1560
bottom 1559
sophi@@ 1559
treas@@ 1559
quarters 1556
craw@@ 1555
epi@@ 1554
badly 1553
ex 1553
friday 1553
cover@@ 1552
gul@@ 1552
kon@@ 1552
dang@@ 1551
delay 1551
grace 1551
meaning 1550
speaks 1550
side@@ 1549
lec@@ 1548
minister 1548
mother@@ 1547
sphere 1547
three-@@ 1547
tivity 1547
character 1546
pies 1546
ruined 1546
vements 1546
16@@ 1545
ose 1544
sounded 1543
aim@@ 1542
laughter 1542
troub@@ 1542
aly@@ 1541
cook 1541
fli@@ 1541
regularly 1541
ut 1541
bond 1540
brings 1540
fears 1540
technologies 1540
joint 1539
tak@@ 1539
а@@ 1539
sp 1538
biggest 1537
ghost 1537
gods 1537
great@@ 1537
returning 1537
tionally 1536
ington 1535
miser@@ 1535
objectives 1535
plac@@ 1535
bill 1534
series 1534
smith 1534
alcohol 1533
bother 1533
gan@@ 1533
muttered 1533
representa@@ 1533
15@@ 1532
pale 1532
initial 1531
kle 1531
lieutenant 1531
regional 1530
unted 1530
falls 1529
processing 1529
clever 1528
fits 1528
revenue 1528
saturday 1528
sin 1528
supported 1528
tiveness 1528
aunt 1527
bleeding 1527
break@@ 1527
popu@@ 1525
aling 1524
cooking 1524
electri@@ 1524
geo@@ 1524
influence 1524
woke 1524
progra@@ 1523
dir@@ 1522
faith 1522
ough 1522
bea@@ 1521
dil@@ 1521
distant 1521
ano@@ 1520
bedroom 1520
elev@@ 1520
murder@@ 1520
ols 1520
rejected 1520
responding 1519
bathroom 1518
ign 1517
scary 1516
thetic 1516
warned 1515
severe 1514
supporting 1514
dani@@ 1513
tar 1513
dawn 1511
corner 1509
divor@@ 1509
jerk 1509
ris 1509
opp@@ 1508
pig 1508
grow@@ 1507
somewhat 1506
stored 1506
sand@@ 1505
values 1505
americans 1504
manage 1504
prisoner 1503
low-@@ 1502
screamed 1502
relation 1501
boots 1500
damned 1500
dates 1499
monitor 1499
plastic 1499
recall 1499
trusted 1499
interest@@ 1498
90 1496
shape 1496
contra@@ 1495
ph 1494
sat@@ 1494
settled 1494
uniform 1494
views 1494
intro@@ 1492
map 1492
dragon 1491
yu@@ 1490
lau@@ 1489
ny@@ 1489
accordance 1488
methods 1488
fail 1487
mined 1487
shri@@ 1487
cheese 1486
rough 1486
ston 1486
talent 1485
dary 1483
dollar 1483
embarra@@ 1483
nowhere 1483
parli@@ 1483
woods 1483
broad 1482
fon@@ 1482
toler@@ 1482
defen@@ 1481
maj@@ 1481
grand@@ 1480
nea@@ 1480
depo@@ 1479
thin@@ 1479
answers 1478
japanese 1478
solved 1478
sexy 1477
econom@@ 1476
factory 1476
hurts 1476
launch 1476
update 1476
´@@ 1476
david 1475
solu@@ 1475
grade 1474
specified 1474
us@@ 1474
advance 1473
oppor@@ 1473
finger@@ 1472
papers 1471
picking 1471
religious 1471
sively 1471
mobile 1470
nearby 1470
phones 1470
exec@@ 1469
friendly 1469
premi@@ 1469
egg 1468
fortunate 1468
horror 1468
prosec@@ 1468
geous 1466
taxes 1466
yal 1466
import@@ 1465
nt 1465
sparhawk 1465
tan 1465
tec@@ 1463
vin@@ 1463
visiting 1463
ambi@@ 1462
e. 1462
causes 1461
ero@@ 1461
schedule 1461
camer@@ 1460
ilities 1460
lab 1460
ak@@ 1457
folks 1457
sever@@ 1457
hero 1454
acking 1453
diag@@ 1453
rows 1453
aces 1452
charlie 1452
good@@ 1452
materials 1452
may@@ 1452
bo 1451
immediate 1451
bou@@ 1450
fires 1450
hosp@@ 1450
juli@@ 1450
max 1450
revol@@ 1450
revealed 1449
temporary 1449
ember 1448
ripped 1448
threatened 1448
19 1447
iety 1447
witnesses 1447
manag@@ 1446
az@@ 1445
zen 1445
computers 1444
eastern 1443
tory 1442
ene 1441
kingdom 1440
firing 1439
naked 1439
flow 1438
commo@@ 1437
recovery 1437
shou@@ 1437
skull 1437
testi@@ 1437
ann@@ 1436
painting 1436
and-@@ 1435
crowd 1435
dal@@ 1434
farm 1434
sper@@ 1433
threat@@ 1433
arrive 1432
bunch 1432
deserve 1432
email 1431
let@@ 1431
timate 1431
customer 1429
long-@@ 1429
whispered 1429
kit@@ 1428
holiday 1427
replace 1427
violent 1427
calcu@@ 1426
complicated 1426
glasses 1426
origin@@ 1426
rings 1426
crash 1425
foolish 1424
panic 1424
automatic 1422
dential 1422
ti 1422
campa@@ 1420
disappear 1420
sources 1420
gang 1419
ious 1419
chron@@ 1418
mark@@ 1418
histor@@ 1417
majesty 1417
motor@@ 1417
sugar 1417
poly@@ 1416
volunte@@ 1416
bon 1415
dwar@@ 1415
passenger 1415
hair@@ 1414
smel@@ 1413
grey 1412
pointment 1411
survived 1411
auto@@ 1410
detail 1410
garden 1410
vag@@ 1410
christi@@ 1408
shadows 1407
symptoms 1407
circle 1406
grave 1406
guests 1406
a. 1405
wic@@ 1405
twi@@ 1404
upstairs 1404
adju@@ 1403
hmm 1403
recorded 1403
chin 1402
distri@@ 1401
fake 1401
loan 1400
owner 1400
stan 1400
ads 1399
atmo@@ 1399
sports 1398
lery 1397
pti@@ 1397
depre@@ 1395
kic@@ 1395
tank 1395
database 1393
grandpa 1392
light@@ 1392
pardon 1392
stin@@ 1391
ddle 1390
alright 1389
fucked 1388
met@@ 1388
pages 1388
pier@@ 1388
interview 1387
celebr@@ 1385
vas@@ 1384
fif@@ 1381
ket@@ 1381
lonely 1381
richard 1381
eh 1379
granny 1379
settings 1379
jon@@ 1378
rear 1378
recru@@ 1378
valid 1378
ices 1377
phen@@ 1377
phil@@ 1377
terrorist 1377
tour 1377
british 1376
alert 1375
flames 1375
regre@@ 1375
sick@@ 1375
export 1374
exists 1373
lake 1371
pocket 1371
software 1370
bread 1369
soci@@ 1368
belie@@ 1367
illness 1367
oppo@@ 1367
kid@@ 1366
mirac@@ 1366
pid 1366
ath@@ 1365
tale 1365
cles 1364
lift 1364
stit@@ 1364
antly 1363
virus 1363
wire 1363
previ@@ 1362
suppor@@ 1362
bullets 1361
prints 1361
kom@@ 1357
rel 1356
ya@@ 1354
awk@@ 1353
deliber@@ 1353
wolf 1353
ffed 1352
football 1352
frozen 1352
oma@@ 1351
si 1351
stretched 1351
cele@@ 1350
moves 1350
recognize 1350
territory 1350
60@@ 1349
collection 1348
ste 1348
champi@@ 1347
handsome 1347
inve@@ 1347
sha 1347
thou@@ 1347
bers 1346
supplies 1346
pension 1345
smells 1345
films 1344
jor@@ 1344
ssa 1344
hel 1343
manager 1343
certain@@ 1342
joking 1342
brilliant 1341
rese@@ 1341
ira@@ 1340
meetings 1339
natur@@ 1339
kir@@ 1338
neighbor@@ 1338
beg 1337
archi@@ 1336
nut@@ 1336
ue 1336
conn@@ 1335
jeal@@ 1335
clock 1334
whisp@@ 1334
nels 1333
н@@ 1333
fas@@ 1331
teaching 1331
parking 1330
sian 1330
00,000 1329
illed 1329
sual 1329
extraordinary 1328
frank 1328
sentence 1328
sex@@ 1328
pir@@ 1327
degrees 1325
healthy 1325
annex 1324
graphic 1324
gil@@ 1323
teach@@ 1323
entrance 1320
jacket 1320
21 1319
40@@ 1319
holi@@ 1319
red@@ 1319
ok@@ 1318
talks 1318
cure 1317
soli@@ 1317
tioning 1317
ature 1315
irrit@@ 1315
iz@@ 1315
pet 1315
plain 1315
» 1315
disapp@@ 1314
kled 1314
wash@@ 1314
'she 1313
indian 1313
satellite 1313
trick 1313
2-@@ 1311
beating 1311
dreaming 1311
itable 1311
kilometers 1311
favor 1309
oric 1309
invest@@ 1308
minds 1308
sab@@ 1308
cloud 1307
sday 1307
threatening 1307
_ 1306
70 1305
robot 1305
zone 1305
ana@@ 1304
congrat@@ 1304
contr@@ 1304
ei@@ 1304
facts 1303
sarah 1303
detective 1302
doc@@ 1302
humanity 1302
attacking 1301
cycle 1301
expert 1301
upper 1301
corpse 1300
session 1300
horiz@@ 1299
missile 1298
musc@@ 1298
opens 1298
colo@@ 1297
solid 1297
twisted 1297
perfor@@ 1296
stations 1296
temper@@ 1296
castle 1295
horri@@ 1295
oxy@@ 1294
beach 1293
citi@@ 1293
plays 1293
warri@@ 1293
c-@@ 1292
infection 1292
abandoned 1291
schools 1291
auth@@ 1290
destruction 1290
murmu@@ 1290
younger 1290
identity 1288
mbs 1288
projec@@ 1288
approximately 1287
destiny 1287
fbi 1287
cargo 1286
ppers 1286
roof 1286
squad 1286
je 1285
expen@@ 1284
6.@@ 1283
ang 1283
deny 1283
recor@@ 1283
human@@ 1282
minor 1282
mistakes 1282
website 1282
rat 1280
ts@@ 1280
vo 1280
aven@@ 1279
cred@@ 1279
‑@@ 1279
washed 1277
disea@@ 1276
nal 1276
require@@ 1276
rome 1276
non 1274
communic@@ 1273
restrictions 1271
nin@@ 1270
success@@ 1269
wy@@ 1269
assistant 1267
dele@@ 1267
moder@@ 1267
uck 1266
docu@@ 1265
warrior 1265
22 1264
priest 1264
gates 1263
mas 1263
condi@@ 1262
enced 1262
sey 1262
monday 1261
yl 1260
anna 1258
fanta@@ 1258
tis@@ 1258
ano 1256
fruit 1255
rebel@@ 1255
vide@@ 1255
hamed 1254
inser@@ 1254
permanent 1254
celebrate 1252
degre@@ 1252
how@@ 1252
mi 1252
í 1252
mist 1251
ú@@ 1251
spect 1250
mask 1249
ml 1249
consequences 1245
w-@@ 1245
ssa@@ 1244
missiles 1243
selves 1243
web@@ 1243
mothers 1241
certific@@ 1240
ordin@@ 1240
pool 1240
songs 1240
flic@@ 1239
ada 1238
russia 1237
tele@@ 1237
italian 1236
kor@@ 1236
volun@@ 1235
bombs 1234
wins 1234
fourth 1233
resour@@ 1231
bath 1230
breasts 1230
default 1230
mista@@ 1230
kore@@ 1229
*@@ 1228
brit@@ 1227
pissed 1227
edi@@ 1226
nity 1225
ppy 1224
glu@@ 1222
approval 1220
treat@@ 1220
acid 1219
fucker 1218
ites 1218
kness 1217
sent@@ 1217
downstairs 1215
lesson 1215
unique 1215
pse 1214
radiation 1213
influ@@ 1211
psych@@ 1211
southern 1211
rifle 1210
bed@@ 1207
com 1207
ith 1207
urgent 1207
festi@@ 1206
crimin@@ 1205
speech 1205
childhood 1203
princess 1203
cerem@@ 1201
every@@ 1201
bell 1200
eva 1199
jim@@ 1199
seed 1199
vacation 1199
engines 1198
safe@@ 1198
ac 1197
tis 1197
ener@@ 1196
newspaper 1196
northern 1196
worries 1195
diamon@@ 1194
techno@@ 1194
pills 1193
2007 1192
dimen@@ 1191
1-@@ 1190
arran@@ 1190
bay 1190
library 1190
bad@@ 1189
guilt 1189
hates 1189
pure 1189
ire 1187
psy@@ 1187
ska 1187
angel 1186
jap@@ 1186
mach@@ 1186
magaz@@ 1186
rice 1186
journali@@ 1185
valuable 1184
dia 1183
jack@@ 1182
5-@@ 1181
ises 1180
monit@@ 1176
jen@@ 1175
make@@ 1175
400 1174
eyebro@@ 1173
guest 1173
stru@@ 1173
cock@@ 1172
milli@@ 1172
brave 1171
fighters 1170
presi@@ 1170
damaged 1169
reco@@ 1168
zer@@ 1168
helicopter 1166
approved 1165
cheap 1165
ired 1164
pink 1164
eye@@ 1163
т@@ 1163
exi@@ 1161
fe 1161
filthy 1161
height 1161
robber@@ 1161
functions 1160
kg 1160
italy 1159
roads 1159
av@@ 1158
oms 1158
package 1158
medication 1156
31 1155
absol@@ 1155
wars 1155
base@@ 1154
eff@@ 1154
pulse 1154
aten 1152
kni@@ 1150
muscles 1150
toilet 1150
tony 1150
adult 1149
sty@@ 1149
terly 1149
и@@ 1146
р@@ 1146
bal 1145
o'@@ 1145
35 1144
expla@@ 1144
fem@@ 1143
extre@@ 1142
religion 1142
repa@@ 1142
exam@@ 1141
sev@@ 1141
spanish 1141
ough@@ 1139
kat@@ 1138
lig@@ 1138
pregn@@ 1138
devil 1137
sz@@ 1137
ghs0@@ 1135
folder 1134
illi@@ 1134
itali@@ 1134
nails 1134
ita 1133
cable 1132
stranger 1132
delete 1131
villa@@ 1129
ecu@@ 1125
appropri@@ 1123
politics 1120
ttes 1120
occur@@ 1118
27@@ 1117
f-@@ 1117
rab@@ 1115
metres 1114
noon 1114
seven@@ 1114
sci@@ 1113
bag@@ 1111
tural 1110
craft 1109
tains 1109
answering 1107
play@@ 1107
progre@@ 1106
sim@@ 1105
zero 1104
aded 1103
communications 1102
fic 1102
assa@@ 1093
africa 1092
ome@@ 1089
phi@@ 1088
choo@@ 1084
ware@@ 1084
cher@@ 1082
ans@@ 1081
32 1080
acro@@ 1078
sop@@ 1078
meth@@ 1075
reward 1075
sweetheart 1074
ug@@ 1074
apparen@@ 1072
them@@ 1072
jour@@ 1070
das 1067
ov 1067
santa 1067
boring 1062
goo@@ 1062
proper@@ 1059
stret@@ 1058
teri@@ 1056
overnight 1055
so-@@ 1051
password 1050
eps 1049
anta@@ 1048
shir@@ 1048
sse@@ 1047
self 1046
res@@ 1045
`@@ 1043
disgusting 1043
shi 1043
edu@@ 1040
rease 1040
km 1037
quic@@ 1036
stances 1036
ef@@ 1035
canc@@ 1031
prev@@ 1031
ã@@ 1031
è@@ 1031
figh@@ 1030
sar 1029
ort 1028
advanta@@ 1026
ection 1025
petro@@ 1024
diff@@ 1018
scho@@ 1018
trous@@ 1018
45 1017
berg 1016
ually 1015
transp@@ 1014
ul 1013
ona 1006
robo@@ 1006
simil@@ 1006
mber 1005
с@@ 1004
fi 1003
garbage 1003
hang@@ 1002
follow@@ 1001
screa@@ 1001
arly 1000
highest 996
afri@@ 995
ese 994
good-bye 994
nonsense 994
arre@@ 992
|@@ 992
til 991
ji 990
ni 990
rejec@@ 990
ř@@ 988
murders 986
stairs 986
ghten@@ 985
ž@@ 984
4-@@ 980
unbeliev@@ 979
oring 978
christ@@ 977
icide 975
cam@@ 972
3-@@ 971
professi@@ 965
spea@@ 965
chocolate 963
profe@@ 963
b-@@ 962
gho@@ 957
reven@@ 957
tries 953
enly 951
bili@@ 949
demon@@ 948
kidnapped 947
embarrassing 946
inning 945
ww@@ 943
possi@@ 941
monkey 940
23 939
coff@@ 937
foot@@ 937
king@@ 936
geor@@ 934
know@@ 934
op 933
b.@@ 932
relation@@ 930
ancing 929
smil@@ 926
bike 925
cross@@ 925
madness 924
ief 923
ox@@ 923
gentle@@ 920
rescu@@ 919
fortunately 912
instruc@@ 909
29@@ 907
imple@@ 907
boy@@ 905
+@@ 903
use@@ 903
amon@@ 902
cz 900
intel@@ 900
stle 898
cab 897
intellig@@ 896
ø@@ 895
remember@@ 894
cies 892
delicious 889
fantastic 885
defin@@ 883
ject 883
russi@@ 883
bir@@ 879
actu@@ 878
hus@@ 871
electr@@ 868
alco@@ 867
> 866
witne@@ 866
buil@@ 865
resp@@ 865
annu@@ 852
п@@ 851
envi@@ 850
\ 847
leas@@ 847
ree 846
reg@@ 846
ternal 845
incredi@@ 844
lars 843
ħ@@ 843
concer@@ 842
nific@@ 842
indepen@@ 841
tits 840
deep@@ 837
а 837
seem@@ 830
ç@@ 830
0-@@ 826
å@@ 826
ury 821
jury 819
won@@ 817
onom@@ 816
ind 813
year@@ 809
youn@@ 807
tten 805
-a-a-a-a-a-a-a-a@@ 803
lier 803
remem@@ 801
responsi@@ 801
contin@@ 799
dg@@ 798
knowle@@ 796
ult 796
anim@@ 795
good-@@ 793
press@@ 793
ć@@ 792
i-i-@@ 789
onic 789
spor@@ 789
pl 786
ñ@@ 783
metho@@ 782
rich@@ 781
dded 780
fren@@ 780
't 779
ems 776
eting 775
newspap@@ 772
seri@@ 771
avo@@ 763
pleas@@ 763
mr@@ 760
langu@@ 757
miss@@ 757
tect 757
h350 756
point@@ 752
syste@@ 750
ert 748
frighten@@ 748
veness 748
в@@ 748
elds 747
versity 746
à 746
issu@@ 744
tra 743
fini@@ 742
♪ 742
ase 741
л@@ 740
compu@@ 736
syst@@ 736
@@ 736
tempor@@ 734
к@@ 734
iev@@ 733
uation 733
bye 731
д@@ 730
anci@@ 729
ential 729
ł@@ 729
peop@@ 724
phy@@ 723
wom@@ 722
itary 720
ż@@ 716
haw@@ 714
empt 713
circum@@ 710
nl 708
territ@@ 706
extra@@ 705
laugh@@ 704
no-@@ 703
lev@@ 699
what@@ 697
stand@@ 692
valu@@ 692
= 690
chur@@ 690
gel 687
offic@@ 687
probab@@ 687
smar@@ 686
ughter 685
clou@@ 684
mely 678
е 676
raid 674
perf@@ 668
explan@@ 667
business@@ 664
tech@@ 663
cle 658
claim@@ 656
fail@@ 654
grou@@ 651
stern 649
lik@@ 647
standar@@ 643
gir@@ 641
acher 640
acti@@ 639
aga@@ 634
socie@@ 634
nuc@@ 629
pment 628
и 628
butt@@ 625
prison@@ 625
charac@@ 622
escap@@ 622
excu@@ 622
assess@@ 620
rus 619
disgu@@ 618
lear@@ 618
environ@@ 617
notic@@ 617
u.@@ 615
max@@ 614
europe@@ 613
lum@@ 612
artic@@ 611
titu@@ 610
…@@ 609
request@@ 607
dgr 606
bath@@ 605
fb@@ 603
smal@@ 603
gent 602
ool 599
€@@ 595
restaur@@ 592
shado@@ 591
anic 589
ý 586
financi@@ 585
aver@@ 584
guil@@ 583
nerv@@ 583
ее@@ 583
opini@@ 582
iles 581
terr@@ 577
adequ@@ 576
mous 572
year-old 572
zzzz@@ 570
bot@@ 564
з@@ 564
inclu@@ 560
avail@@ 555
stom@@ 552
corri@@ 550
cop@@ 546
more@@ 545
gni@@ 542
other@@ 541
struction 540
perman@@ 538
leng@@ 537
lite 537
chen 533
eping 533
ć 530
oce@@ 529
mage 525
ο@@ 524
entr@@ 521
ě@@ 521
ā@@ 520
oud 519
materi@@ 514
mally 512
indu@@ 508
marri@@ 508
insur@@ 507
satur@@ 506
agra@@ 502
releas@@ 501
manu@@ 498
gure 493
power@@ 491
eth 489
tau@@ 487
centr@@ 486
lease 486
child@@ 485
week@@ 484
vid 483
mbers 482
nex@@ 481
gare@@ 476
zens 472
· 468
datab@@ 467
ś@@ 466
м@@ 464
chea@@ 460
ī@@ 459
seless 457
gency 455
« 455
legis@@ 450
sic 450
helicop@@ 448
matt@@ 447
thom@@ 446
â@@ 445
insan@@ 444
contri@@ 442
ó 436
birth@@ 433
æ@@ 432
signific@@ 431
hawk 429
ow 429
servic@@ 428
tally 426
libr@@ 423
commerci@@ 422
ctions 421
@@ 420
nega@@ 419
techn@@ 418
colon@@ 417
õ@@ 417
administra@@ 416
serge@@ 415
barra@@ 414
beau@@ 411
aly 409
xim@@ 409
event@@ 408
girl@@ 408
shoul@@ 406
paragra@@ 402
о 402
lie@@ 399
ood 398
ssels 397
ord 396
б@@ 396
ead 395
secur@@ 395
weap@@ 391
pers 390
satel@@ 390
ê@@ 390
practi@@ 387
exac@@ 384
hic@@ 381
ssor 381
cell@@ 379
mec@@ 379
uch 378
sche@@ 372
vil 372
vities 372
ees 370
itely 365
ä 363
cape 362
specially 362
commun@@ 359
rapi@@ 356
gaz@@ 355
inju@@ 353
partment 352
exist@@ 351
toil@@ 350
achi@@ 349
ý@@ 345
sour@@ 344
incre@@ 343
kay 343
α@@ 342
tish 341
£@@ 341
evi@@ 340
trou@@ 339
expendit@@ 337
ē@@ 336
destin@@ 335
chal@@ 332
beauti@@ 331
contro@@ 331
à@@ 331
„@@ 331
excell@@ 327
å 327
erous 324
mpi@@ 323
chri@@ 322
éééééééé@@ 321
year-@@ 319
bull@@ 316
ų 312
ô@@ 311
beha@@ 310
wonder@@ 308
hung@@ 306
phic 304
yea@@ 302
ą@@ 302
chang@@ 300
cil 299
sily 299
ween 299
ъ@@ 299
` 298
° 297
brilli@@ 294
ė@@ 292
chap@@ 291
enty 291
ù@@ 291
enty-@@ 290
hope@@ 290
menti@@ 290
yor@@ 290
religi@@ 287
esty 284
=@@ 283
drin@@ 279
± 277
proble@@ 276
relev@@ 275
hundre@@ 274
acity 273
instru@@ 269
stard 269
attor@@ 268
č 268
windo@@ 264
ą 263
eric@@ 262
atten@@ 261
enor@@ 261
near@@ 261
ő@@ 261
°@@ 257
ö 257
sands 256
ę@@ 256
{ 255
} 253
bile 251
τ@@ 251
ġ@@ 249
bey@@ 246
у@@ 246
apy 245
again@@ 244
г@@ 243
ï@@ 242
quie@@ 241
twel@@ 241
μ@@ 241
lear 240
tely 240
vili@@ 239
stol@@ 237
symp@@ 237
ridi@@ 232
ū@@ 231
americ@@ 228
complic@@ 226
ν@@ 226
ċ@@ 222
beh@@ 221
kilome@@ 219
spani@@ 216
thes 216
gge@@ 212
dred 210
through@@ 210
¡@@ 210
š 210
ß@@ 205
● 205
ň@@ 202
vail@@ 198
ould 197
€ 197
feel@@ 193
easi@@ 192
ι@@ 192
etings 191
fing@@ 191
particu@@ 191
ă@@ 191
journ@@ 188
aren@@ 186
tee 186
î@@ 185
κ@@ 185
ā 181
~ 180
toms 177
я@@ 177
logies 174
requi@@ 171
bage 170
ë@@ 169
famili@@ 167
stren@@ 167
fore 166
ρ@@ 166
ж@@ 166
¤@@ 165
ε@@ 163
‑ 163
toge@@ 161
piec@@ 158
¿@@ 157
micha@@ 155
approxim@@ 153
joh@@ 153
ц@@ 152
performan@@ 151
ς 150
ń@@ 149
ﬁ 148
σ@@ 146
ე@@ 146
ů@@ 145
gery 144
ssel 143
­ 143
immedi@@ 141
~@@ 141
ě 141
π@@ 140
chocol@@ 138
ő 137
< 136
automa@@ 135
ò@@ 135
ů 135
‐@@ 135
grat@@ 133
µ@@ 133
^@@ 132
ridicul@@ 132
éé@@ 131
ester@@ 128
messa@@ 128
prince@@ 128
´ 127
ļ@@ 127
в 127
т 127
ч 126
α 125
ο 125
ę 123
erci@@ 121
я 121
§ 119
ί@@ 118
tomor@@ 117
ť@@ 117
ques@@ 116
х@@ 116
† 116
− 115
õ 114
ß 113
º 112
û@@ 112
vehic@@ 111
ė 111
ž 110
р 110
perfec@@ 109
λ@@ 109
effor@@ 107
uten@@ 107
的@@ 107
televi@@ 106
è 105
β@@ 104
usu@@ 102
figu@@ 99
ird 99
ë 99
ľ 99
ň 99
ό@@ 99
ა@@ 99
dama@@ 98
sku@@ 98
ч@@ 98
þ@@ 97
ﬂ@@ 97
enem@@ 96
famil@@ 96
ი@@ 96
pub@@ 95
® 95
η@@ 95
й@@ 95
ø 94
υ@@ 94
 94
ﬁ@@ 92
º@@ 91
↑ 89
helic@@ 86
consum@@ 85
ü 85
δ@@ 85
larly 84
ì@@ 84
ნ@@ 84
awe@@ 83
©@@ 83
й 83
staf@@ 82
რ@@ 82
s0@@ 81
answ@@ 80
ń 78
ņ@@ 78
θ@@ 78
♫ 78
→ 76
sionally 75
ú 75
ĺ@@ 75
υ 75
opportun@@ 74
utely 74
į 72
с 72
-a-a@@ 70
ò 70
― 69
‧@@ 69
victi@@ 68
wro@@ 68
ź@@ 68
ш@@ 68
^ 67
minut@@ 67
我@@ 67
朋@@ 66
-a-a-a-a@@ 64
ვ@@ 64
™@@ 64
when@@ 63
ά@@ 63
 63
hol 62
¢@@ 62
♪@@ 62
¤ 61
ლ@@ 61
soldi@@ 60
ű@@ 60
į@@ 59
γ@@ 59
ტ@@ 59
eval@@ 58
ი 58
‧ 58
≤ 58
anne@@ 57
·@@ 57
idea@@ 56
¶ 56
chine@@ 55
hori@@ 55
lieuten@@ 55
× 55
dures 54
щ@@ 54
■ 54
ď@@ 53
ﬂ 53
dure 52
mex@@ 52
↔ 52
მ@@ 51
ს@@ 51
▪ 51
goti@@ 50
prep@@ 50
¿ 50
ω@@ 50
ო@@ 50
guaran@@ 48
² 48
¼@@ 48
н 48
ù 47
ε 47
éééé@@ 46
ħ 46
œ@@ 45
ύ@@ 45
″ 45
�@@ 45
frien@@ 44
×@@ 44
ż 44
友@@ 44
ﬀ@@ 44
ð@@ 43
‐ 43
newsp@@ 42
კ@@ 42
უ@@ 42
� 42
leep 41
perha@@ 41
ê 41
φ@@ 41
yester@@ 40
ģ@@ 40
ş@@ 40
χ@@ 40
traf@@ 39
ˇ@@ 39
ა 39
© 38
д 38
ither 37
™ 37
@@ 37
 37
obvi@@ 36
ă 36
ġ 36
ķ@@ 36
ť 36
έ@@ 36
passen@@ 35
ґ@@ 35
დ@@ 35
•@@ 35
の@@ 35
ス@@ 35
sudd@@ 33
æ 33
ď 33
ľ@@ 33
ს 33
celer@@ 32
thern 32
ç 32
λ 32
ν 32
​@@ 32
ř 31
―@@ 31
是@@ 31
 31
ı@@ 30
ű 30
†@@ 30
❖ 30
不@@ 30
@@ 29
ō@@ 29
л 29
‚@@ 29
′@@ 29
一@@ 29
ª@@ 28
ô 28
ÿ 28
ų@@ 28
к 28
上@@ 28
diffic@@ 27
¥@@ 27
@@ 26
ώ@@ 26
ნ 26
› 26
≥ 26
人@@ 26
±@@ 25
ã 25
→@@ 25
anese 24
dren 24
neigh@@ 24
ō 24
ι 24
∞ 24
们@@ 24
会@@ 24
sweethe@@ 23
 22
ś 22
ό 22
↑@@ 22
友 22
要@@ 22
谁@@ 22
ï 21
ή 21
х 21
在@@ 21
movi@@ 20
@@ 20
ь@@ 20
↓@@ 20
な@@ 20
ト@@ 20
ー@@ 20
大@@ 20
馬@@ 20
ª 19
đ@@ 19
ğ@@ 19
ĺ 19
ბ@@ 19
ე 19
回@@ 19
那@@ 19
³@@ 18
¸@@ 18
ή@@ 18
ф@@ 18
个@@ 18
可@@ 18
这@@ 18
 17
¯@@ 17
☞ 17
expend@@ 16
 16
 16
η 16
ξ@@ 16
τ 16
з 16
ў@@ 16
⌠@@ 16
你@@ 16
抯 16
¹ 15
ñ 15
ł 15
̇@@ 15
ά 15
у 15
გ@@ 15
。@@ 15
こ@@ 15
す@@ 15
で@@ 15
と@@ 15
コ@@ 15
テ@@ 15
的 15
@@ 15
ﬀ 15
ﬃ 15
@@ 14
³ 14
¼ 14
½ 14
║ 14
也@@ 14
他@@ 14
有@@ 14
知@@ 14
ÿ@@ 13
ζ@@ 13
ю@@ 13
პ@@ 13
ც@@ 13
▐ 13
她@@ 13
教@@ 13
晚@@ 13
staur@@ 12
¹@@ 12
ƒ@@ 12
ς@@ 12
ь 12
≥@@ 12
世@@ 12
么@@ 12
国@@ 12
能@@ 12
busin@@ 11
ў 11
↔@@ 11
中@@ 11
受@@ 11
总@@ 11
抳@@ 11
 11
ﬃ@@ 11
bigge@@ 10
pared 10
tware 10
 10
§@@ 10
²@@ 10
ț@@ 10
ы@@ 10
‛@@ 10
、@@ 10
に@@ 10
は@@ 10
も@@ 10
る@@ 10
ク@@ 10
ン@@ 10
亞@@ 10
代@@ 10
傳@@ 10
別@@ 10
利@@ 10
器@@ 10
対@@ 10
找@@ 10
撒@@ 10
方@@ 10
會@@ 10
查@@ 10
校@@ 10
業@@ 10
機@@ 10
法 10
用@@ 10
碼 10
策@@ 10
統@@ 10
衹@@ 10
覺 10
識@@ 10
警@@ 10
 10
 10
 10
aband@@ 9
÷ 9
þ 9
ţ@@ 9
щ 9
ъ 9
ძ@@ 9
‰ 9
为@@ 9
份@@ 9
士@@ 9
多@@ 9
无@@ 9
神@@ 9
者 9
认@@ 9
论@@ 9
道@@ 9
部@@ 9
 9
@@ 9
@@ 8
@@ 8
£ 8
¨@@ 8
ē 8
ŕ@@ 8
ș@@ 8
θ 8
г 8
ხ@@ 8
‟ 8
₤@@ 8
些@@ 8
人 8
以@@ 8
但@@ 8
児 8
卓@@ 8
去@@ 8
媽@@ 8
就 8
年@@ 8
征@@ 8
必@@ 8
忠@@ 8
怒 8
憤@@ 8
成@@ 8
时 8
服@@ 8
来@@ 8
样 8
然@@ 8
直@@ 8
睡@@ 8
箍@@ 8
緊@@ 8
自@@ 8
觉@@ 8
解@@ 8
誠 8
越@@ 8
須@@ 8
devel@@ 7
¨ 7
â 7
ì 7
ז@@ 7
ჩ@@ 7
‰@@ 7
什@@ 7
令@@ 7
们 7
來@@ 7
到@@ 7
号@@ 7
后 7
夠@@ 7
底@@ 7
开@@ 7
彻@@ 7
得@@ 7
意 7
房@@ 7
排@@ 7
斯@@ 7
最@@ 7
机@@ 7
杀@@ 7
枪 7
案@@ 7
止@@ 7
洁@@ 7
洗@@ 7
清@@ 7
滿@@ 7
点@@ 7
界 7
看@@ 7
答@@ 7
美@@ 7
阻@@ 7
@@ 7
@@ 7
 7
shole 6
 6
@@ 6
¾@@ 6
û 6
˝ 6
˝@@ 6
΄@@ 6
ψ@@ 6
ј@@ 6
י@@ 6
„ 6
‡ 6
≤@@ 6
─ 6
伤 6
炸@@ 6
爆@@ 6
@@ 5
¦ 5
ı 5
ş 5
ɵ 5
ˆ 5
ϋ 5
м 5
ფ 5
ფ@@ 5
შ@@ 5
′ 5
↓ 5
い@@ 5
が@@ 5
け@@ 5
さ@@ 5
た@@ 5
つ@@ 5
て@@ 5
ど@@ 5
ま@@ 5
め@@ 5
や@@ 5
り@@ 5
れ@@ 5
を@@ 5
サ@@ 5
ゼ@@ 5
ッ@@ 5
ニ@@ 5
パ@@ 5
ボ@@ 5
ル@@ 5
ロ@@ 5
丈@@ 5
企@@ 5
偷@@ 5
分@@ 5
夫 5
好@@ 5
学@@ 5
從@@ 5
授@@ 5
攻@@ 5
数 5
沒@@ 5
界@@ 5
略@@ 5
笨@@ 5
能 5
舎 5
認@@ 5
読@@ 5
講@@ 5
身@@ 5
過@@ 5
都@@ 5
重@@ 5
錢 5
際@@ 5
 5
imum 4
@@ 4
 4
¡ 4
¬ 4
¯ 4
¶@@ 4
î 4
һ@@ 4
來 4
区 4
卡@@ 4
呢 4
啊 4
城@@ 4
家@@ 4
市 4
弗@@ 4
很@@ 4
德@@ 4
快@@ 4
怎@@ 4
怪@@ 4
我 4
朗@@ 4
科@@ 4
等@@ 4
索@@ 4
西@@ 4
門 4
開@@ 4
 3
@@ 3
¢ 3
¦@@ 3
¬@@ 3
µ 3
¾ 3
÷@@ 3
ċ 3
ƒ 3
ț 3
κ 3
ύ 3
თ@@ 3
რ 3
了 3
事@@ 3
克@@ 3
全@@ 3
務@@ 3
口@@ 3
听@@ 3
啦 3
完@@ 3
師@@ 3
律@@ 3
所 3
放@@ 3
曼@@ 3
理@@ 3
袋@@ 3
韋@@ 3
 3
 3
 3
@@ 3
 2
ļ 2
ˇ 2
ო 2
ჟ@@ 2
‹ 2
 2
vidu@@ 1
ð 1
ī 1
ș 1
ძ 1
凡@@ 1
女@@ 1
好 1
非@@ 1
madeupword0000 0
madeupword0001 0
madeupword0002 0
madeupword0003 0
madeupword0004 0
